#include "magic_wand_model_data.h"

// We need to keep the data array aligned on some architectures.
#ifdef __has_attribute
#define HAVE_ATTRIBUTE(x) __has_attribute(x)
#else
#define HAVE_ATTRIBUTE(x) 0
#endif
#if HAVE_ATTRIBUTE(aligned) || (defined(__GNUC__) && !defined(__clang__))
#define DATA_ALIGN_ATTRIBUTE __attribute__((aligned(4)))
#else
#define DATA_ALIGN_ATTRIBUTE
#endif

const unsigned char g_magic_wand_model_data[] DATA_ALIGN_ATTRIBUTE = {
  // Paste the data of the char array in `src/model.cc` here
  0x1c, 0x00, 0x00, 0x00, 0x54, 0x46, 0x4c, 0x33, 0x14, 0x00, 0x20, 0x00,
  0x04, 0x00, 0x08, 0x00, 0x0c, 0x00, 0x10, 0x00, 0x14, 0x00, 0x00, 0x00,
  0x18, 0x00, 0x1c, 0x00, 0x14, 0x00, 0x00, 0x00, 0x03, 0x00, 0x00, 0x00,
  0x18, 0x00, 0x00, 0x00, 0x2c, 0x00, 0x00, 0x00, 0xd8, 0x00, 0x00, 0x00,
  0x2c, 0x00, 0x00, 0x00, 0x80, 0x00, 0x00, 0x00, 0x78, 0x00, 0x00, 0x00,
  0x05, 0x00, 0x00, 0x00, 0x28, 0x07, 0x00, 0x00, 0x44, 0x06, 0x00, 0x00,
  0xbc, 0x03, 0x00, 0x00, 0xf8, 0x02, 0x00, 0x00, 0xac, 0x01, 0x00, 0x00,
  0x01, 0x00, 0x00, 0x00, 0xd0, 0x00, 0x00, 0x00, 0x14, 0x00, 0x00, 0x00,
  0xdc, 0x32, 0x00, 0x00, 0xd8, 0x32, 0x00, 0x00, 0xd0, 0x31, 0x00, 0x00,
  0x1c, 0x31, 0x00, 0x00, 0x74, 0x30, 0x00, 0x00, 0xfc, 0x2f, 0x00, 0x00,
  0x90, 0x2f, 0x00, 0x00, 0x40, 0x13, 0x00, 0x00, 0xec, 0x11, 0x00, 0x00,
  0x10, 0x10, 0x00, 0x00, 0xb4, 0x07, 0x00, 0x00, 0xb0, 0x32, 0x00, 0x00,
  0xac, 0x32, 0x00, 0x00, 0xa8, 0x32, 0x00, 0x00, 0xa4, 0x32, 0x00, 0x00,
  0xa0, 0x32, 0x00, 0x00, 0x9c, 0x32, 0x00, 0x00, 0x98, 0x32, 0x00, 0x00,
  0x94, 0x32, 0x00, 0x00, 0x3c, 0x00, 0x00, 0x00, 0x00, 0x00, 0x00, 0x00,
  0x01, 0x00, 0x00, 0x00, 0x0c, 0x00, 0x00, 0x00, 0x08, 0x00, 0x0c, 0x00,
  0x04, 0x00, 0x08, 0x00, 0x08, 0x00, 0x00, 0x00, 0x08, 0x00, 0x00, 0x00,
  0x13, 0x00, 0x00, 0x00, 0x13, 0x00, 0x00, 0x00, 0x6d, 0x69, 0x6e, 0x5f,
  0x72, 0x75, 0x6e, 0x74, 0x69, 0x6d, 0x65, 0x5f, 0x76, 0x65, 0x72, 0x73,
  0x69, 0x6f, 0x6e, 0x00, 0xb6, 0xce, 0xff, 0xff, 0x04, 0x00, 0x00, 0x00,
  0x10, 0x00, 0x00, 0x00, 0x31, 0x2e, 0x35, 0x2e, 0x30, 0x00, 0x00, 0x00,
  0x00, 0x00, 0x00, 0x00, 0x00, 0x00, 0x00, 0x00, 0x0f, 0x00, 0x00, 0x00,
  0x4d, 0x4c, 0x49, 0x52, 0x20, 0x43, 0x6f, 0x6e, 0x76, 0x65, 0x72, 0x74,
  0x65, 0x64, 0x2e, 0x00, 0x00, 0x00, 0x0e, 0x00, 0x18, 0x00, 0x04, 0x00,
  0x08, 0x00, 0x0c, 0x00, 0x10, 0x00, 0x14, 0x00, 0x0e, 0x00, 0x00, 0x00,
  0x14, 0x00, 0x00, 0x00, 0x5c, 0x00, 0x00, 0x00, 0x60, 0x00, 0x00, 0x00,
  0x64, 0x00, 0x00, 0x00, 0x84, 0x00, 0x00, 0x00, 0x12, 0x00, 0x00, 0x00,
  0x9c, 0x31, 0x00, 0x00, 0x2c, 0x31, 0x00, 0x00, 0x88, 0x30, 0x00, 0x00,
  0xe0, 0x2f, 0x00, 0x00, 0x38, 0x2f, 0x00, 0x00, 0xd4, 0x2e, 0x00, 0x00,
  0x6c, 0x2e, 0x00, 0x00, 0x18, 0x12, 0x00, 0x00, 0xbc, 0x10, 0x00, 0x00,
  0xe0, 0x0e, 0x00, 0x00, 0x0c, 0x06, 0x00, 0x00, 0x28, 0x05, 0x00, 0x00,
  0xe8, 0x03, 0x00, 0x00, 0x3c, 0x03, 0x00, 0x00, 0x98, 0x02, 0x00, 0x00,
  0xd4, 0x01, 0x00, 0x00, 0x10, 0x01, 0x00, 0x00, 0x84, 0x00, 0x00, 0x00,
  0x01, 0x00, 0x00, 0x00, 0x00, 0x00, 0x00, 0x00, 0x01, 0x00, 0x00, 0x00,
  0x11, 0x00, 0x00, 0x00, 0x08, 0x00, 0x00, 0x00, 0x74, 0x05, 0x00, 0x00,
  0x94, 0x04, 0x00, 0x00, 0x78, 0x03, 0x00, 0x00, 0xbc, 0x02, 0x00, 0x00,
  0x30, 0x02, 0x00, 0x00, 0x50, 0x01, 0x00, 0x00, 0xa8, 0x00, 0x00, 0x00,
  0x10, 0x00, 0x00, 0x00, 0x04, 0x00, 0x00, 0x00, 0x6d, 0x61, 0x69, 0x6e,
  0x00, 0x00, 0x00, 0x00, 0x7a, 0xff, 0xff, 0xff, 0x00, 0x00, 0x00, 0x09,
  0x04, 0x00, 0x00, 0x00, 0x1c, 0x00, 0x00, 0x00, 0x10, 0x00, 0x00, 0x00,
  0x04, 0x00, 0x00, 0x00, 0xb2, 0xcf, 0xff, 0xff, 0x00, 0x00, 0x80, 0x3f,
  0x01, 0x00, 0x00, 0x00, 0x11, 0x00, 0x00, 0x00, 0x01, 0x00, 0x00, 0x00,
  0x10, 0x00, 0x00, 0x00, 0xa0, 0xfa, 0xff, 0xff, 0x19, 0x00, 0x00, 0x00,
  0x00, 0x00, 0x00, 0x19, 0x01, 0x00, 0x00, 0x00, 0x40, 0xcf, 0xff, 0xff,
  0x14, 0x00, 0x00, 0x00, 0x12, 0x00, 0x00, 0x00, 0x18, 0x00, 0x00, 0x00,
  0x30, 0x00, 0x00, 0x00, 0x20, 0x00, 0x00, 0x00, 0x02, 0x00, 0x00, 0x00,
  0x01, 0x00, 0x00, 0x00, 0x04, 0x00, 0x00, 0x00, 0x08, 0x00, 0x00, 0x00,
  0x49, 0x64, 0x65, 0x6e, 0x74, 0x69, 0x74, 0x79, 0x00, 0x00, 0x00, 0x00,
  0x02, 0x00, 0x00, 0x00, 0xff, 0xff, 0xff, 0xff, 0x04, 0x00, 0x00, 0x00,
  0x24, 0xd0, 0xff, 0xff, 0x00, 0x00, 0x0e, 0x00, 0x18, 0x00, 0x08, 0x00,
  0x0c, 0x00, 0x10, 0x00, 0x07, 0x00, 0x14, 0x00, 0x0e, 0x00, 0x00, 0x00,
  0x00, 0x00, 0x00, 0x08, 0x03, 0x00, 0x00, 0x00, 0x18, 0x00, 0x00, 0x00,
  0x0c, 0x00, 0x00, 0x00, 0x04, 0x00, 0x00, 0x00, 0x40, 0xcf, 0xff, 0xff,
  0x01, 0x00, 0x00, 0x00, 0x10, 0x00, 0x00, 0x00, 0x03, 0x00, 0x00, 0x00,
  0x0f, 0x00, 0x00, 0x00, 0x07, 0x00, 0x00, 0x00, 0x04, 0x00, 0x00, 0x00,
  0xc8, 0xcf, 0xff, 0xff, 0x14, 0x00, 0x00, 0x00, 0x11, 0x00, 0x00, 0x00,
  0x18, 0x00, 0x00, 0x00, 0x5c, 0x00, 0x00, 0x00, 0x4c, 0x00, 0x00, 0x00,
  0x02, 0x00, 0x00, 0x00, 0x01, 0x00, 0x00, 0x00, 0x04, 0x00, 0x00, 0x00,
  0x34, 0x00, 0x00, 0x00, 0x73, 0x65, 0x71, 0x75, 0x65, 0x6e, 0x74, 0x69,
  0x61, 0x6c, 0x2f, 0x64, 0x65, 0x6e, 0x73, 0x65, 0x5f, 0x31, 0x2f, 0x4d,
  0x61, 0x74, 0x4d, 0x75, 0x6c, 0x3b, 0x73, 0x65, 0x71, 0x75, 0x65, 0x6e,
  0x74, 0x69, 0x61, 0x6c, 0x2f, 0x64, 0x65, 0x6e, 0x73, 0x65, 0x5f, 0x31,
  0x2f, 0x42, 0x69, 0x61, 0x73, 0x41, 0x64, 0x64, 0x00, 0x00, 0x00, 0x00,
  0x02, 0x00, 0x00, 0x00, 0xff, 0xff, 0xff, 0xff, 0x04, 0x00, 0x00, 0x00,
  0xc8, 0xcf, 0xff, 0xff, 0xda, 0xfc, 0xff, 0xff, 0x00, 0x00, 0x00, 0x08,
  0x03, 0x00, 0x00, 0x00, 0x24, 0x00, 0x00, 0x00, 0x18, 0x00, 0x00, 0x00,
  0x0c, 0x00, 0x00, 0x00, 0x00, 0x00, 0x06, 0x00, 0x08, 0x00, 0x07, 0x00,
  0x06, 0x00, 0x00, 0x00, 0x00, 0x00, 0x00, 0x01, 0x01, 0x00, 0x00, 0x00,
  0x0f, 0x00, 0x00, 0x00, 0x03, 0x00, 0x00, 0x00, 0x0e, 0x00, 0x00, 0x00,
  0x06, 0x00, 0x00, 0x00, 0x03, 0x00, 0x00, 0x00, 0xe8, 0xfb, 0xff, 0xff,
  0x09, 0x00, 0x00, 0x00, 0x00, 0x00, 0x00, 0x09, 0x01, 0x00, 0x00, 0x00,
  0x88, 0xd0, 0xff, 0xff, 0x14, 0x00, 0x00, 0x00, 0x10, 0x00, 0x00, 0x00,
  0x18, 0x00, 0x00, 0x00, 0x6c, 0x00, 0x00, 0x00, 0x5c, 0x00, 0x00, 0x00,
  0x02, 0x00, 0x00, 0x00, 0x01, 0x00, 0x00, 0x00, 0x10, 0x00, 0x00, 0x00,
  0x46, 0x00, 0x00, 0x00, 0x73, 0x65, 0x71, 0x75, 0x65, 0x6e, 0x74, 0x69,
  0x61, 0x6c, 0x2f, 0x64, 0x65, 0x6e, 0x73, 0x65, 0x2f, 0x4d, 0x61, 0x74,
  0x4d, 0x75, 0x6c, 0x3b, 0x73, 0x65, 0x71, 0x75, 0x65, 0x6e, 0x74, 0x69,
  0x61, 0x6c, 0x2f, 0x64, 0x65, 0x6e, 0x73, 0x65, 0x2f, 0x52, 0x65, 0x6c,
  0x75, 0x3b, 0x73, 0x65, 0x71, 0x75, 0x65, 0x6e, 0x74, 0x69, 0x61, 0x6c,
  0x2f, 0x64, 0x65, 0x6e, 0x73, 0x65, 0x2f, 0x42, 0x69, 0x61, 0x73, 0x41,
  0x64, 0x64, 0x00, 0x00, 0x02, 0x00, 0x00, 0x00, 0xff, 0xff, 0xff, 0xff,
  0x10, 0x00, 0x00, 0x00, 0xa8, 0xd1, 0xff, 0xff, 0x00, 0x00, 0x0a, 0x00,
  0x10, 0x00, 0x04, 0x00, 0x08, 0x00, 0x0c, 0x00, 0x0a, 0x00, 0x00, 0x00,
  0x02, 0x00, 0x00, 0x00, 0x10, 0x00, 0x00, 0x00, 0x04, 0x00, 0x00, 0x00,
  0x01, 0x00, 0x00, 0x00, 0x0e, 0x00, 0x00, 0x00, 0x02, 0x00, 0x00, 0x00,
  0x0d, 0x00, 0x00, 0x00, 0x05, 0x00, 0x00, 0x00, 0xa8, 0xfc, 0xff, 0xff,
  0x16, 0x00, 0x00, 0x00, 0x00, 0x00, 0x00, 0x16, 0x01, 0x00, 0x00, 0x00,
  0x48, 0xd1, 0xff, 0xff, 0x14, 0x00, 0x00, 0x00, 0x0f, 0x00, 0x00, 0x00,
  0x18, 0x00, 0x00, 0x00, 0x40, 0x00, 0x00, 0x00, 0x30, 0x00, 0x00, 0x00,
  0x02, 0x00, 0x00, 0x00, 0x01, 0x00, 0x00, 0x00, 0x70, 0x00, 0x00, 0x00,
  0x1a, 0x00, 0x00, 0x00, 0x73, 0x65, 0x71, 0x75, 0x65, 0x6e, 0x74, 0x69,
  0x61, 0x6c, 0x2f, 0x66, 0x6c, 0x61, 0x74, 0x74, 0x65, 0x6e, 0x2f, 0x52,
  0x65, 0x73, 0x68, 0x61, 0x70, 0x65, 0x00, 0x00, 0x02, 0x00, 0x00, 0x00,
  0xff, 0xff, 0xff, 0xff, 0x70, 0x00, 0x00, 0x00, 0x2c, 0xd1, 0xff, 0xff,
  0x3e, 0xfe, 0xff, 0xff, 0x00, 0x00, 0x00, 0x05, 0x01, 0x00, 0x00, 0x00,
  0x38, 0x00, 0x00, 0x00, 0x2c, 0x00, 0x00, 0x00, 0x14, 0x00, 0x00, 0x00,
  0x00, 0x00, 0x0e, 0x00, 0x14, 0x00, 0x00, 0x00, 0x10, 0x00, 0x0c, 0x00,
  0x08, 0x00, 0x04, 0x00, 0x0e, 0x00, 0x00, 0x00, 0x03, 0x00, 0x00, 0x00,
  0x01, 0x00, 0x00, 0x00, 0x03, 0x00, 0x00, 0x00, 0x01, 0x00, 0x00, 0x00,
  0x01, 0x00, 0x00, 0x00, 0x0d, 0x00, 0x00, 0x00, 0x01, 0x00, 0x00, 0x00,
  0x0c, 0x00, 0x00, 0x00, 0xe8, 0xd1, 0xff, 0xff, 0x14, 0x00, 0x00, 0x00,
  0x0e, 0x00, 0x00, 0x00, 0x20, 0x00, 0x00, 0x00, 0x58, 0x00, 0x00, 0x00,
  0x40, 0x00, 0x00, 0x00, 0x04, 0x00, 0x00, 0x00, 0x01, 0x00, 0x00, 0x00,
  0x07, 0x00, 0x00, 0x00, 0x01, 0x00, 0x00, 0x00, 0x10, 0x00, 0x00, 0x00,
  0x22, 0x00, 0x00, 0x00, 0x73, 0x65, 0x71, 0x75, 0x65, 0x6e, 0x74, 0x69,
  0x61, 0x6c, 0x2f, 0x6d, 0x61, 0x78, 0x5f, 0x70, 0x6f, 0x6f, 0x6c, 0x69,
  0x6e, 0x67, 0x32, 0x64, 0x5f, 0x31, 0x2f, 0x4d, 0x61, 0x78, 0x50, 0x6f,
  0x6f, 0x6c, 0x00, 0x00, 0x04, 0x00, 0x00, 0x00, 0xff, 0xff, 0xff, 0xff,
  0x07, 0x00, 0x00, 0x00, 0x01, 0x00, 0x00, 0x00, 0x10, 0x00, 0x00, 0x00,
  0xe4, 0xd1, 0xff, 0xff, 0x1a, 0xfe, 0xff, 0xff, 0x00, 0x00, 0x00, 0x01,
  0x24, 0x00, 0x00, 0x00, 0x18, 0x00, 0x00, 0x00, 0x04, 0x00, 0x00, 0x00,
  0x0c, 0xfe, 0xff, 0xff, 0x01, 0x00, 0x00, 0x00, 0x01, 0x00, 0x00, 0x00,
  0x00, 0x00, 0x00, 0x01, 0x01, 0x00, 0x00, 0x00, 0x0c, 0x00, 0x00, 0x00,
  0x03, 0x00, 0x00, 0x00, 0x0b, 0x00, 0x00, 0x00, 0x09, 0x00, 0x00, 0x00,
  0x02, 0x00, 0x00, 0x00, 0x90, 0xd2, 0xff, 0xff, 0x14, 0x00, 0x00, 0x00,
  0x0d, 0x00, 0x00, 0x00, 0x20, 0x00, 0x00, 0x00, 0xb8, 0x00, 0x00, 0x00,
  0xa0, 0x00, 0x00, 0x00, 0x04, 0x00, 0x00, 0x00, 0x01, 0x00, 0x00, 0x00,
  0x15, 0x00, 0x00, 0x00, 0x01, 0x00, 0x00, 0x00, 0x10, 0x00, 0x00, 0x00,
  0x83, 0x00, 0x00, 0x00, 0x73, 0x65, 0x71, 0x75, 0x65, 0x6e, 0x74, 0x69,
  0x61, 0x6c, 0x2f, 0x63, 0x6f, 0x6e, 0x76, 0x32, 0x64, 0x5f, 0x31, 0x2f,
  0x52, 0x65, 0x6c, 0x75, 0x3b, 0x73, 0x65, 0x71, 0x75, 0x65, 0x6e, 0x74,
  0x69, 0x61, 0x6c, 0x2f, 0x63, 0x6f, 0x6e, 0x76, 0x32, 0x64, 0x5f, 0x31,
  0x2f, 0x42, 0x69, 0x61, 0x73, 0x41, 0x64, 0x64, 0x3b, 0x73, 0x65, 0x71,
  0x75, 0x65, 0x6e, 0x74, 0x69, 0x61, 0x6c, 0x2f, 0x63, 0x6f, 0x6e, 0x76,
  0x32, 0x64, 0x5f, 0x31, 0x2f, 0x43, 0x6f, 0x6e, 0x76, 0x32, 0x44, 0x3b,
  0x73, 0x65, 0x71, 0x75, 0x65, 0x6e, 0x74, 0x69, 0x61, 0x6c, 0x2f, 0x63,
  0x6f, 0x6e, 0x76, 0x32, 0x64, 0x5f, 0x31, 0x2f, 0x42, 0x69, 0x61, 0x73,
  0x41, 0x64, 0x64, 0x2f, 0x52, 0x65, 0x61, 0x64, 0x56, 0x61, 0x72, 0x69,
  0x61, 0x62, 0x6c, 0x65, 0x4f, 0x70, 0x2f, 0x72, 0x65, 0x73, 0x6f, 0x75,
  0x72, 0x63, 0x65, 0x00, 0x04, 0x00, 0x00, 0x00, 0xff, 0xff, 0xff, 0xff,
  0x15, 0x00, 0x00, 0x00, 0x01, 0x00, 0x00, 0x00, 0x10, 0x00, 0x00, 0x00,
  0xfc, 0xd3, 0xff, 0xff, 0x00, 0x00, 0x0e, 0x00, 0x1a, 0x00, 0x08, 0x00,
  0x0c, 0x00, 0x10, 0x00, 0x07, 0x00, 0x14, 0x00, 0x0e, 0x00, 0x00, 0x00,
  0x00, 0x00, 0x00, 0x05, 0x01, 0x00, 0x00, 0x00, 0x3c, 0x00, 0x00, 0x00,
  0x30, 0x00, 0x00, 0x00, 0x14, 0x00, 0x00, 0x00, 0x00, 0x00, 0x0e, 0x00,
  0x18, 0x00, 0x17, 0x00, 0x10, 0x00, 0x0c, 0x00, 0x08, 0x00, 0x04, 0x00,
  0x0e, 0x00, 0x00, 0x00, 0x03, 0x00, 0x00, 0x00, 0x03, 0x00, 0x00, 0x00,
  0x03, 0x00, 0x00, 0x00, 0x03, 0x00, 0x00, 0x00, 0x00, 0x00, 0x00, 0x01,
  0x01, 0x00, 0x00, 0x00, 0x0b, 0x00, 0x00, 0x00, 0x01, 0x00, 0x00, 0x00,
  0x0a, 0x00, 0x00, 0x00, 0x2c, 0xff, 0xff, 0xff, 0x11, 0x00, 0x00, 0x00,
  0x00, 0x00, 0x00, 0x11, 0x01, 0x00, 0x00, 0x00, 0xcc, 0xd3, 0xff, 0xff,
  0x14, 0x00, 0x00, 0x00, 0x0c, 0x00, 0x00, 0x00, 0x20, 0x00, 0x00, 0x00,
  0x58, 0x00, 0x00, 0x00, 0x40, 0x00, 0x00, 0x00, 0x04, 0x00, 0x00, 0x00,
  0x01, 0x00, 0x00, 0x00, 0x15, 0x00, 0x00, 0x00, 0x01, 0x00, 0x00, 0x00,
  0x08, 0x00, 0x00, 0x00, 0x20, 0x00, 0x00, 0x00, 0x73, 0x65, 0x71, 0x75,
  0x65, 0x6e, 0x74, 0x69, 0x61, 0x6c, 0x2f, 0x6d, 0x61, 0x78, 0x5f, 0x70,
  0x6f, 0x6f, 0x6c, 0x69, 0x6e, 0x67, 0x32, 0x64, 0x2f, 0x4d, 0x61, 0x78,
  0x50, 0x6f, 0x6f, 0x6c, 0x00, 0x00, 0x00, 0x00, 0x04, 0x00, 0x00, 0x00,
  0xff, 0xff, 0xff, 0xff, 0x15, 0x00, 0x00, 0x00, 0x01, 0x00, 0x00, 0x00,
  0x08, 0x00, 0x00, 0x00, 0xd8, 0xd4, 0xff, 0xff, 0x00, 0x00, 0x0e, 0x00,
  0x14, 0x00, 0x00, 0x00, 0x08, 0x00, 0x0c, 0x00, 0x07, 0x00, 0x10, 0x00,
  0x0e, 0x00, 0x00, 0x00, 0x00, 0x00, 0x00, 0x01, 0x30, 0x00, 0x00, 0x00,
  0x24, 0x00, 0x00, 0x00, 0x10, 0x00, 0x00, 0x00, 0x0c, 0x00, 0x10, 0x00,
  0x00, 0x00, 0x04, 0x00, 0x08, 0x00, 0x0f, 0x00, 0x0c, 0x00, 0x00, 0x00,
  0x01, 0x00, 0x00, 0x00, 0x01, 0x00, 0x00, 0x00, 0x00, 0x00, 0x00, 0x01,
  0x01, 0x00, 0x00, 0x00, 0x0a, 0x00, 0x00, 0x00, 0x03, 0x00, 0x00, 0x00,
  0x00, 0x00, 0x00, 0x00, 0x08, 0x00, 0x00, 0x00, 0x01, 0x00, 0x00, 0x00,
  0x0c, 0x00, 0x10, 0x00, 0x0b, 0x00, 0x00, 0x00, 0x0c, 0x00, 0x04, 0x00,
  0x0c, 0x00, 0x00, 0x00, 0x03, 0x00, 0x00, 0x00, 0x00, 0x00, 0x00, 0x03,
  0x01, 0x00, 0x00, 0x00, 0xac, 0xd4, 0xff, 0xff, 0x14, 0x00, 0x00, 0x00,
  0x0b, 0x00, 0x00, 0x00, 0x20, 0x00, 0x00, 0x00, 0xb0, 0x00, 0x00, 0x00,
  0x98, 0x00, 0x00, 0x00, 0x04, 0x00, 0x00, 0x00, 0x01, 0x00, 0x00, 0x00,
  0x40, 0x00, 0x00, 0x00, 0x03, 0x00, 0x00, 0x00, 0x08, 0x00, 0x00, 0x00,
  0x7b, 0x00, 0x00, 0x00, 0x73, 0x65, 0x71, 0x75, 0x65, 0x6e, 0x74, 0x69,
  0x61, 0x6c, 0x2f, 0x63, 0x6f, 0x6e, 0x76, 0x32, 0x64, 0x2f, 0x52, 0x65,
  0x6c, 0x75, 0x3b, 0x73, 0x65, 0x71, 0x75, 0x65, 0x6e, 0x74, 0x69, 0x61,
  0x6c, 0x2f, 0x63, 0x6f, 0x6e, 0x76, 0x32, 0x64, 0x2f, 0x42, 0x69, 0x61,
  0x73, 0x41, 0x64, 0x64, 0x3b, 0x73, 0x65, 0x71, 0x75, 0x65, 0x6e, 0x74,
  0x69, 0x61, 0x6c, 0x2f, 0x63, 0x6f, 0x6e, 0x76, 0x32, 0x64, 0x2f, 0x43,
  0x6f, 0x6e, 0x76, 0x32, 0x44, 0x3b, 0x73, 0x65, 0x71, 0x75, 0x65, 0x6e,
  0x74, 0x69, 0x61, 0x6c, 0x2f, 0x63, 0x6f, 0x6e, 0x76, 0x32, 0x64, 0x2f,
  0x42, 0x69, 0x61, 0x73, 0x41, 0x64, 0x64, 0x2f, 0x52, 0x65, 0x61, 0x64,
  0x56, 0x61, 0x72, 0x69, 0x61, 0x62, 0x6c, 0x65, 0x4f, 0x70, 0x2f, 0x72,
  0x65, 0x73, 0x6f, 0x75, 0x72, 0x63, 0x65, 0x00, 0x04, 0x00, 0x00, 0x00,
  0xff, 0xff, 0xff, 0xff, 0x40, 0x00, 0x00, 0x00, 0x03, 0x00, 0x00, 0x00,
  0x08, 0x00, 0x00, 0x00, 0x00, 0xd5, 0xff, 0xff, 0x0a, 0xd6, 0xff, 0xff,
  0x04, 0x00, 0x00, 0x00, 0x00, 0x08, 0x00, 0x00, 0x29, 0x5d, 0xad, 0xbd,
  0x75, 0x02, 0x0b, 0x3f, 0x17, 0x74, 0x5b, 0xbd, 0x68, 0x6e, 0xca, 0x3d,
  0x73, 0x4f, 0x8f, 0x3e, 0x17, 0x13, 0x1f, 0xbe, 0x5b, 0xca, 0x9a, 0xbe,
  0xb2, 0x05, 0x99, 0x3c, 0x8a, 0x06, 0x36, 0x3d, 0xd2, 0xb2, 0x2d, 0x3d,
  0x44, 0x99, 0x92, 0x3c, 0x41, 0xdd, 0x65, 0xbd, 0x84, 0x09, 0x8e, 0x3e,
  0x61, 0x02, 0x16, 0xbe, 0x77, 0x92, 0x96, 0xbe, 0x9a, 0xdd, 0x42, 0xbe,
  0x1b, 0xd4, 0xc9, 0x3d, 0x4c, 0xea, 0xd7, 0xb9, 0xeb, 0x06, 0xfb, 0x3c,
  0x77, 0x06, 0xdf, 0x3d, 0x41, 0x82, 0x52, 0xbd, 0xf1, 0x7a, 0x29, 0xbd,
  0x4b, 0x42, 0x83, 0xbe, 0x2b, 0x24, 0x63, 0xbe, 0x07, 0x22, 0x1b, 0xbd,
  0x14, 0x35, 0x8b, 0x3e, 0xcf, 0x5e, 0x00, 0x3e, 0xb6, 0x10, 0x73, 0x3c,
  0x92, 0x31, 0x97, 0x3e, 0xa3, 0x46, 0x24, 0x3c, 0x45, 0xdf, 0x67, 0xbe,
  0xdd, 0x5b, 0x1b, 0x3e, 0x28, 0x83, 0xe3, 0xbd, 0x8a, 0x3c, 0xa0, 0x3e,
  0x6b, 0x5c, 0xa1, 0x3e, 0xbb, 0x78, 0xfb, 0x3d, 0x36, 0x0e, 0x02, 0xbc,
  0x5f, 0x48, 0x1a, 0x3e, 0xc2, 0x8f, 0xe7, 0xbc, 0xb9, 0x1d, 0xfe, 0xbc,
  0xa6, 0x15, 0xd5, 0xbd, 0xa0, 0x79, 0x88, 0xbb, 0x7d, 0x7b, 0x2b, 0xbd,
  0xc2, 0xe2, 0xc8, 0x3d, 0xcf, 0x8d, 0x35, 0x3e, 0xfe, 0x86, 0xc8, 0x3c,
  0x8d, 0xd4, 0x94, 0x3d, 0x15, 0x84, 0x51, 0xbb, 0x5e, 0xc2, 0xc3, 0xbe,
  0x67, 0x58, 0x02, 0xbe, 0x3b, 0x0d, 0xfa, 0xbd, 0xc3, 0x64, 0xa0, 0xbe,
  0x84, 0x24, 0x86, 0x3d, 0x6b, 0xf2, 0x82, 0xbd, 0x2f, 0xed, 0x2d, 0xbd,
  0x06, 0xb3, 0x21, 0xbd, 0x35, 0xb4, 0x4d, 0xbd, 0x33, 0xe5, 0x0d, 0xbe,
  0x55, 0xf2, 0x31, 0xbe, 0xca, 0xc5, 0xaa, 0xbe, 0x3d, 0x06, 0x31, 0x3b,
  0x72, 0xe5, 0x03, 0xbe, 0x8d, 0x16, 0x4e, 0xbd, 0x62, 0xfe, 0xea, 0xbd,
  0xdc, 0x12, 0x87, 0xbe, 0x11, 0x68, 0x9d, 0x3c, 0x55, 0x18, 0xfc, 0x3d,
  0xe4, 0x55, 0x33, 0xbf, 0x64, 0xbf, 0xf0, 0x3e, 0x91, 0x4e, 0x20, 0x3e,
  0x91, 0x5e, 0xa5, 0xbd, 0x0e, 0xc2, 0xde, 0xbd, 0x39, 0x73, 0x12, 0xbe,
  0x0e, 0xa6, 0x8f, 0x3c, 0x90, 0xb2, 0xa5, 0x3e, 0x4b, 0x0c, 0x00, 0xbf,
  0xd0, 0x3f, 0x06, 0xbd, 0x4d, 0x05, 0x49, 0xbd, 0x9b, 0x06, 0x90, 0xbd,
  0x15, 0x19, 0x9a, 0xbe, 0x44, 0xf0, 0xd0, 0xbd, 0x89, 0x1f, 0x20, 0xbc,
  0xc3, 0x34, 0xba, 0x3d, 0x45, 0x2a, 0x9f, 0x3e, 0xea, 0x4c, 0x08, 0x3e,
  0x18, 0x49, 0xb5, 0xbd, 0xfd, 0x1f, 0x97, 0x3d, 0xb1, 0x47, 0x0d, 0xbf,
  0x00, 0xc9, 0xa2, 0x3e, 0x9e, 0xfd, 0x3b, 0xbe, 0x05, 0xaf, 0x7e, 0xbe,
  0x3a, 0xf6, 0xb4, 0xbd, 0xd8, 0x6c, 0x3d, 0xbe, 0x0c, 0x47, 0x8e, 0xbe,
  0x5d, 0xe8, 0xb6, 0xbc, 0x12, 0xfc, 0x4a, 0xbf, 0xa1, 0xfe, 0xdc, 0x3b,
  0xbf, 0x14, 0x9d, 0xbd, 0x1a, 0x76, 0xf8, 0xbd, 0x38, 0x9c, 0x95, 0x3e,
  0x69, 0xd5, 0xc1, 0x3e, 0x21, 0x6d, 0xc0, 0xbe, 0x42, 0xf7, 0x05, 0x3b,
  0xcf, 0x14, 0x70, 0xbe, 0x64, 0x75, 0x2d, 0xbd, 0x55, 0xae, 0x95, 0xbd,
  0x7b, 0xc9, 0xe2, 0xbd, 0x29, 0x0d, 0x1a, 0x3d, 0x2a, 0x6e, 0x72, 0xbe,
  0x53, 0x80, 0x5a, 0xbe, 0xfa, 0xf5, 0x78, 0xbd, 0xa7, 0x22, 0x4a, 0xbe,
  0xe7, 0x2a, 0x0a, 0x3d, 0x88, 0xb3, 0x05, 0xbd, 0xe2, 0x4a, 0x0a, 0x3c,
  0x6c, 0x6a, 0x3d, 0x3d, 0xf1, 0x3f, 0x3d, 0x3f, 0xae, 0x3b, 0xfe, 0xbd,
  0xf4, 0x82, 0x1d, 0xbd, 0xac, 0xf2, 0x64, 0xbd, 0xf1, 0x79, 0x32, 0xbd,
  0x9c, 0xfd, 0x2f, 0xbd, 0x4a, 0xbc, 0xb5, 0x3d, 0x33, 0x8d, 0x1d, 0x3d,
  0xda, 0x9f, 0x92, 0x3e, 0x24, 0xdd, 0xfc, 0xbc, 0x31, 0xbd, 0x9b, 0x3d,
  0x11, 0x9c, 0x7e, 0x3e, 0xbe, 0xd7, 0xcc, 0xbe, 0x26, 0xa2, 0xd4, 0xbd,
  0xd7, 0x7f, 0xb8, 0x3d, 0xcd, 0x3c, 0xa2, 0xbd, 0x2a, 0x65, 0x9c, 0x3e,
  0x8f, 0xdf, 0x12, 0x3e, 0x74, 0x6c, 0x56, 0x3e, 0x93, 0x53, 0x2a, 0x3e,
  0xd6, 0x2f, 0xaa, 0xbe, 0xd3, 0x4b, 0x1b, 0xbe, 0x18, 0xd9, 0x1b, 0xbe,
  0x55, 0x88, 0xb1, 0xbe, 0x47, 0x3f, 0xdf, 0xbc, 0x9b, 0xc4, 0x26, 0xbe,
  0x1d, 0xbd, 0x3c, 0xbe, 0x36, 0x59, 0xfd, 0xbc, 0x70, 0x2d, 0xa8, 0xbd,
  0x20, 0x0a, 0xbf, 0xbd, 0x9f, 0x56, 0x94, 0xbe, 0xa5, 0x59, 0x2b, 0xbd,
  0xa4, 0x92, 0xd6, 0x3d, 0x44, 0xee, 0x9d, 0xbe, 0x56, 0x90, 0x49, 0xbe,
  0x72, 0x3e, 0x4b, 0xbd, 0x41, 0xcb, 0xa8, 0x3d, 0xc1, 0x21, 0x25, 0x3f,
  0xa2, 0xf3, 0x26, 0xbe, 0xc6, 0x6d, 0x7b, 0x3c, 0x66, 0x33, 0x23, 0x3d,
  0x1f, 0x41, 0x4b, 0xbe, 0x61, 0x5d, 0x6d, 0xbe, 0xb4, 0x8f, 0x59, 0xbe,
  0x03, 0x96, 0x83, 0xbe, 0x81, 0x17, 0x17, 0xbe, 0xe1, 0x9a, 0xa9, 0xbd,
  0x6a, 0x63, 0xd6, 0xbe, 0x13, 0xc3, 0xd8, 0xbd, 0x9c, 0x1d, 0x3a, 0xbe,
  0x5d, 0xbb, 0xc1, 0xbe, 0x3a, 0x29, 0xaf, 0xbd, 0x56, 0x05, 0x0b, 0xbe,
  0x6d, 0x96, 0xb6, 0xbd, 0x7a, 0x10, 0xf0, 0xbd, 0x90, 0x98, 0x89, 0xbe,
  0x93, 0x4e, 0x25, 0xbc, 0xf8, 0x19, 0x51, 0xbe, 0xb1, 0x58, 0x81, 0xbe,
  0x76, 0xb2, 0x2d, 0xbe, 0xff, 0x02, 0x8c, 0xbd, 0x48, 0x11, 0xca, 0x3c,
  0xa8, 0x91, 0xac, 0xbd, 0x17, 0xdb, 0xc8, 0x3d, 0xf1, 0xe2, 0xb5, 0xbd,
  0xee, 0x09, 0xf1, 0xbd, 0x20, 0xd6, 0x67, 0xbe, 0x7f, 0x05, 0x0e, 0xbe,
  0x85, 0x0b, 0x9f, 0xbd, 0x4a, 0x37, 0x70, 0x3e, 0xe9, 0x34, 0x94, 0x3e,
  0x72, 0xaa, 0xe9, 0x3e, 0x29, 0xbd, 0x0c, 0xbc, 0x5d, 0xbc, 0x0c, 0x3f,
  0x47, 0xa7, 0x04, 0xbe, 0xe4, 0x1e, 0xf6, 0xbb, 0x2e, 0x72, 0xa8, 0xbd,
  0x41, 0x25, 0x44, 0xbc, 0x14, 0xea, 0xeb, 0x3d, 0x29, 0xe7, 0x81, 0xbe,
  0xe2, 0xaa, 0xd6, 0x3e, 0x20, 0xf9, 0x9e, 0xbe, 0x48, 0x45, 0xbc, 0x3d,
  0x47, 0xb4, 0x7a, 0xbe, 0xac, 0x8b, 0xc1, 0xbd, 0xf9, 0xa0, 0x9b, 0xbd,
  0x7a, 0x04, 0xe2, 0x3d, 0xe1, 0xff, 0xbf, 0xbd, 0xd3, 0x21, 0x83, 0x3e,
  0xc6, 0xcf, 0x7f, 0xbe, 0xe8, 0xe1, 0x5a, 0x3d, 0x12, 0xd0, 0xd4, 0xbe,
  0xd6, 0x45, 0x31, 0x3d, 0xa3, 0xea, 0xd5, 0xbd, 0xd0, 0x37, 0xea, 0xbd,
  0xac, 0x1f, 0x62, 0xbe, 0x57, 0x6b, 0x4a, 0xbe, 0xd2, 0xca, 0xb1, 0xbe,
  0xad, 0x7a, 0xf3, 0x3c, 0x62, 0x05, 0x3b, 0xbf, 0xdb, 0x2a, 0x25, 0x3c,
  0x70, 0xd3, 0x2f, 0xbe, 0xd3, 0x72, 0x47, 0xbb, 0x34, 0x63, 0xca, 0x3e,
  0x9b, 0xfa, 0xca, 0x3d, 0xcc, 0xdb, 0xdc, 0x3c, 0xd8, 0xb2, 0x75, 0xbd,
  0xa7, 0xee, 0x76, 0xbe, 0xed, 0x88, 0x22, 0xbe, 0xd9, 0x04, 0xe7, 0xbd,
  0xed, 0xcb, 0x37, 0xbd, 0xd4, 0x90, 0x65, 0xbe, 0xb4, 0x7b, 0xee, 0xbe,
  0x19, 0x67, 0xbe, 0xbd, 0xc1, 0xb7, 0x96, 0x3e, 0x91, 0x62, 0xbc, 0xbe,
  0x9f, 0x86, 0xe1, 0xbd, 0x39, 0x6b, 0x51, 0xbe, 0xc0, 0x0e, 0x4d, 0x3e,
  0x38, 0xca, 0x87, 0xbe, 0x42, 0xf7, 0x9b, 0xbe, 0x76, 0x5c, 0x93, 0x3d,
  0x73, 0x86, 0x50, 0xbd, 0xb2, 0xe9, 0x61, 0xbe, 0xae, 0x61, 0x25, 0xbe,
  0xdf, 0xd3, 0x1e, 0xbe, 0xee, 0x91, 0x70, 0x3c, 0x1c, 0xb9, 0xe0, 0xbd,
  0x41, 0x99, 0x14, 0xbe, 0x0c, 0xad, 0x0e, 0x3e, 0x69, 0xc7, 0x59, 0x3e,
  0x58, 0xcd, 0x7c, 0xbe, 0xa4, 0xc5, 0xa4, 0xbe, 0x57, 0xde, 0x85, 0xbe,
  0x98, 0x06, 0x07, 0x3e, 0x59, 0x15, 0x86, 0xbe, 0x33, 0x1b, 0x2f, 0xbe,
  0x36, 0x46, 0x88, 0xbe, 0xb5, 0x9c, 0x1a, 0x3e, 0xc5, 0xa5, 0x03, 0xbe,
  0x12, 0x91, 0x57, 0x3e, 0x5b, 0xfd, 0x6a, 0x3d, 0x57, 0xd6, 0x95, 0xbe,
  0x56, 0x8e, 0xa3, 0x3e, 0xea, 0xa2, 0x82, 0xbd, 0x3d, 0xc3, 0x5d, 0xbe,
  0x00, 0xc8, 0x24, 0xbd, 0x4f, 0x3c, 0xcc, 0xbe, 0xd9, 0xc4, 0x5f, 0x3e,
  0xc7, 0xa6, 0x14, 0x3d, 0x65, 0x35, 0x4c, 0x3e, 0xbf, 0xd5, 0x73, 0x3e,
  0xb2, 0x2d, 0x07, 0xbf, 0x31, 0xea, 0xab, 0xbd, 0xfb, 0xb8, 0x5c, 0xbd,
  0xa8, 0x95, 0xd9, 0xbd, 0x0d, 0x5c, 0x88, 0xbe, 0x89, 0xee, 0x83, 0xbd,
  0xfd, 0x13, 0x56, 0x3d, 0x7c, 0x6a, 0xc2, 0xbd, 0xc1, 0x32, 0x69, 0xbe,
  0xed, 0x1e, 0x2d, 0x3e, 0xe3, 0xa2, 0x9b, 0xbe, 0x98, 0x57, 0x36, 0xbd,
  0x68, 0x31, 0xb6, 0xbe, 0x54, 0x94, 0xcb, 0xbd, 0xa6, 0x42, 0x49, 0x3d,
  0x5a, 0x9f, 0xa2, 0xbe, 0xc6, 0xb7, 0xc8, 0x3e, 0xa0, 0x60, 0x16, 0x3d,
  0x34, 0x72, 0xd0, 0xbe, 0xd1, 0xee, 0x0f, 0x3c, 0x64, 0x07, 0x1e, 0xbd,
  0x84, 0x4a, 0x61, 0xbd, 0x6c, 0x77, 0x22, 0x3f, 0x45, 0x7a, 0x13, 0x3c,
  0x33, 0x82, 0x29, 0x3d, 0xac, 0xf6, 0x03, 0xbc, 0xf6, 0xc3, 0xd9, 0x3c,
  0xe1, 0xdd, 0x3a, 0xbc, 0x13, 0xea, 0x2f, 0xbd, 0xe3, 0x72, 0x72, 0xbd,
  0x68, 0x50, 0x25, 0xbd, 0xd4, 0x67, 0x31, 0x3d, 0x8e, 0x42, 0xd4, 0x3d,
  0x10, 0xa0, 0xa7, 0xbb, 0x95, 0xb0, 0xee, 0xbb, 0x2b, 0xc0, 0x60, 0xbc,
  0xeb, 0xd9, 0x89, 0xbd, 0x4d, 0x45, 0xa0, 0xbd, 0xe4, 0xda, 0xf0, 0xbc,
  0x6e, 0x9b, 0x47, 0x3d, 0x28, 0xab, 0xf0, 0x3d, 0x0c, 0x77, 0xbe, 0xbc,
  0xfa, 0xdd, 0x88, 0x3c, 0xf8, 0x4e, 0x28, 0xbd, 0x7a, 0xec, 0x7a, 0xbc,
  0x67, 0x77, 0x7f, 0xbd, 0xc7, 0xc0, 0x18, 0xbd, 0x44, 0x1f, 0xd8, 0xbc,
  0x80, 0x65, 0x5b, 0x3d, 0x00, 0x98, 0x6e, 0xbd, 0x27, 0xe0, 0x03, 0x3d,
  0xe8, 0xe5, 0x58, 0xbd, 0x12, 0x70, 0x72, 0x3d, 0x2d, 0x2d, 0xd7, 0x3b,
  0x9c, 0x00, 0x75, 0x3c, 0x01, 0x99, 0xca, 0xbd, 0x73, 0x46, 0x97, 0xbe,
  0xd0, 0x44, 0x55, 0xbe, 0x30, 0xaf, 0x9a, 0xbd, 0xf3, 0xfc, 0x5a, 0xbe,
  0xff, 0x46, 0xb8, 0xbd, 0x7d, 0x8b, 0xa9, 0xbc, 0xce, 0x3e, 0xc2, 0x3c,
  0x0f, 0x37, 0xb0, 0xbd, 0x49, 0xa2, 0xe1, 0x3d, 0x0b, 0xba, 0x43, 0xbe,
  0xad, 0x91, 0x5e, 0x3d, 0x11, 0x3d, 0x32, 0xbe, 0xfb, 0xbe, 0x59, 0x3e,
  0x1f, 0xb4, 0xff, 0xbc, 0x6e, 0xd6, 0xd1, 0xbd, 0xf6, 0xb8, 0x51, 0xbd,
  0xfe, 0xc4, 0xe1, 0x3e, 0x10, 0x06, 0x96, 0xbe, 0xd6, 0x35, 0x2d, 0x3e,
  0x53, 0x96, 0xb1, 0xbe, 0x0c, 0xb7, 0x93, 0x3d, 0x7b, 0x8d, 0xed, 0xbc,
  0x9e, 0x46, 0x49, 0xbe, 0x1e, 0x3b, 0x19, 0x3d, 0xac, 0x32, 0xef, 0xbe,
  0xb6, 0x60, 0x9a, 0x3e, 0x46, 0x9c, 0x0d, 0xbc, 0xfb, 0x67, 0xb3, 0xbd,
  0x7b, 0x4c, 0xb8, 0x3e, 0xf3, 0x14, 0x36, 0xbe, 0x51, 0x96, 0xd0, 0xbe,
  0x78, 0xc3, 0x1e, 0x3e, 0x25, 0x25, 0x78, 0x3e, 0x04, 0xe6, 0x10, 0xbe,
  0xe3, 0x36, 0x5a, 0x3e, 0xc8, 0x0a, 0xd5, 0xbe, 0x38, 0x91, 0x22, 0x3e,
  0xd9, 0x05, 0xed, 0xbe, 0xac, 0xc7, 0xa0, 0xbe, 0x7f, 0x12, 0x2c, 0x3e,
  0x79, 0x6c, 0x0d, 0xbf, 0x19, 0x63, 0x70, 0xbd, 0x08, 0xfc, 0x19, 0xbc,
  0x25, 0x51, 0x0d, 0xbe, 0x43, 0xe6, 0x9f, 0xbe, 0xed, 0x74, 0xb6, 0xbd,
  0xa3, 0x76, 0x69, 0xbb, 0x09, 0xce, 0xe3, 0xbc, 0x35, 0xe6, 0xa9, 0xbc,
  0xf5, 0x92, 0xb7, 0x3d, 0x17, 0xfe, 0xf2, 0xbd, 0xd1, 0x56, 0x9e, 0x3d,
  0x57, 0xbf, 0xa8, 0xbe, 0xb3, 0x4c, 0xf6, 0xba, 0xbb, 0xff, 0x0a, 0x3e,
  0xd7, 0x79, 0xae, 0xbe, 0x64, 0xb0, 0x8d, 0x3b, 0x9f, 0xa1, 0x2e, 0x3e,
  0xa6, 0x2a, 0x0a, 0xbe, 0xe3, 0xda, 0x70, 0x3d, 0x9f, 0xd2, 0xd0, 0xbb,
  0xdb, 0x94, 0xce, 0x3d, 0xb9, 0x23, 0x0e, 0x3d, 0xf3, 0x9e, 0x11, 0xbe,
  0x36, 0xb5, 0xef, 0x3d, 0x7e, 0xbc, 0xb0, 0x3d, 0x69, 0x9c, 0x2b, 0xbe,
  0xe5, 0xd3, 0xa7, 0x3e, 0x2c, 0x0e, 0x6e, 0xbe, 0x5d, 0x09, 0x6b, 0x3e,
  0xec, 0x60, 0x01, 0xbd, 0x95, 0x0e, 0x1f, 0x3e, 0xec, 0xe3, 0x6c, 0xbd,
  0x61, 0xaa, 0x4a, 0x3d, 0x28, 0xe2, 0x0d, 0xbe, 0x19, 0xd8, 0x01, 0x3d,
  0x0a, 0x58, 0x40, 0xbf, 0xcd, 0x5d, 0x35, 0xbd, 0xe9, 0x88, 0x67, 0xbe,
  0xa2, 0x38, 0xd0, 0xbe, 0xb6, 0x85, 0x4f, 0x3e, 0xe9, 0xc1, 0xd1, 0xbd,
  0x9d, 0xf6, 0xf4, 0x3b, 0x61, 0x4c, 0x33, 0xbd, 0x55, 0x08, 0x9a, 0xbe,
  0x88, 0x06, 0x9b, 0xbe, 0xb6, 0x93, 0xc8, 0xbe, 0x1d, 0x9f, 0x23, 0xbf,
  0x88, 0xc1, 0x69, 0x3e, 0xe5, 0x0a, 0x91, 0xbe, 0xdd, 0xf9, 0x63, 0xbe,
  0x8d, 0x1b, 0xce, 0xbd, 0x86, 0xbf, 0x4f, 0xbe, 0x2b, 0xa8, 0xbc, 0x3e,
  0x03, 0xb4, 0xea, 0x3e, 0x4a, 0x60, 0x3b, 0xbc, 0x49, 0x78, 0x1e, 0xbd,
  0x07, 0xb0, 0x05, 0x3e, 0x79, 0x6c, 0x43, 0xbc, 0xb5, 0x9d, 0x8c, 0xbc,
  0xd1, 0x09, 0x30, 0xbe, 0xc4, 0x49, 0x49, 0xbe, 0x0b, 0x07, 0x23, 0xbe,
  0x59, 0x3a, 0x03, 0xbf, 0x35, 0xb2, 0x09, 0xbe, 0x3a, 0xe8, 0xb9, 0xbc,
  0x0f, 0xba, 0xa0, 0x3b, 0x89, 0x4d, 0xd4, 0xbd, 0xeb, 0x33, 0x1a, 0x3d,
  0x64, 0xbb, 0x20, 0xbe, 0x8c, 0x23, 0x8b, 0xbd, 0xdf, 0xd1, 0x0b, 0xbd,
  0xbf, 0x6c, 0x6f, 0x3d, 0x43, 0xc3, 0x63, 0xbd, 0xca, 0xe3, 0x3f, 0x3c,
  0xf0, 0xa6, 0x17, 0xbe, 0x74, 0x7c, 0x4b, 0xbc, 0x9a, 0x04, 0x24, 0xbe,
  0x5f, 0x62, 0xd5, 0xbd, 0xfc, 0x43, 0x00, 0x3d, 0x4f, 0x81, 0xfc, 0x3d,
  0x39, 0x19, 0xdc, 0xbd, 0xc4, 0xf1, 0x2d, 0xbb, 0xde, 0x0e, 0x1b, 0xbe,
  0x8e, 0x1a, 0x30, 0xbe, 0xb8, 0x23, 0xf4, 0x3d, 0x68, 0x62, 0x8f, 0xba,
  0x69, 0xcb, 0x83, 0xbe, 0x3b, 0x9b, 0x5d, 0x3f, 0xb9, 0xc8, 0x8f, 0xbf,
  0x64, 0x3c, 0x4a, 0xbe, 0xe7, 0x86, 0x0c, 0xbf, 0xf0, 0x37, 0x82, 0x3e,
  0xe9, 0xf3, 0x5e, 0xbe, 0xa2, 0x28, 0xc9, 0xbe, 0x8d, 0x8c, 0xd1, 0x3d,
  0x2a, 0x90, 0xfa, 0x3d, 0x93, 0x26, 0xb7, 0xbe, 0xc7, 0x55, 0x9b, 0x39,
  0x49, 0x15, 0x7c, 0xbf, 0xc5, 0x49, 0x2d, 0x3d, 0x70, 0x3f, 0xe4, 0xbd,
  0x9c, 0x69, 0x87, 0xbd, 0x2e, 0x03, 0xd6, 0x3d, 0xe3, 0xdc, 0x25, 0xbe,
  0x70, 0x33, 0x86, 0x3e, 0x95, 0x19, 0x95, 0xbe, 0x6c, 0x39, 0xad, 0x3c,
  0xbb, 0x90, 0x1c, 0xbe, 0xb6, 0x2f, 0x37, 0x3d, 0xdf, 0x74, 0x8c, 0x3c,
  0xec, 0xa9, 0x32, 0xbe, 0xdd, 0x7a, 0x82, 0x3d, 0xa5, 0x33, 0xcc, 0x3d,
  0x91, 0x08, 0x0f, 0xbf, 0xdd, 0x18, 0x25, 0x3e, 0x14, 0x46, 0x09, 0xbf,
  0xe2, 0x4c, 0x3c, 0xbd, 0x95, 0xf3, 0x84, 0xbe, 0x8b, 0xed, 0x8f, 0xbe,
  0x71, 0xc7, 0x8a, 0xbe, 0x0f, 0x05, 0xda, 0xbe, 0xd7, 0xf4, 0x59, 0x3e,
  0x80, 0x29, 0xd3, 0x3d, 0x4a, 0xce, 0xa2, 0xbe, 0xfc, 0x20, 0xcb, 0x3d,
  0xc3, 0xcc, 0xb6, 0xbe, 0xd2, 0x8f, 0x2e, 0xbd, 0xbd, 0xdc, 0x15, 0xbe,
  0x09, 0x3c, 0xbf, 0xbe, 0xb7, 0xd7, 0x82, 0xbe, 0x97, 0x50, 0xf1, 0x3d,
  0x9a, 0x12, 0xce, 0xbd, 0x51, 0x48, 0x82, 0xbd, 0xa2, 0x63, 0x48, 0xbc,
  0x06, 0xe2, 0x67, 0xbd, 0x22, 0x25, 0x03, 0x3e, 0x1d, 0xe4, 0x39, 0x3d,
  0xad, 0x6d, 0xa7, 0x3c, 0x86, 0x2f, 0xae, 0x3d, 0xce, 0xcc, 0xeb, 0xbd,
  0x11, 0x5d, 0x74, 0x3d, 0xda, 0xee, 0x8c, 0x3d, 0x15, 0xc8, 0xeb, 0xbc,
  0xdd, 0xff, 0x0e, 0xbc, 0x7d, 0x85, 0xa3, 0xbd, 0x3f, 0x1e, 0x2d, 0x3d,
  0x7d, 0x46, 0x52, 0x3d, 0xe2, 0xdd, 0xff, 0xff, 0x10, 0x00, 0x00, 0x00,
  0x0a, 0x00, 0x00, 0x00, 0x1c, 0x00, 0x00, 0x00, 0x38, 0x00, 0x00, 0x00,
  0x04, 0x00, 0x00, 0x00, 0x10, 0x00, 0x00, 0x00, 0x04, 0x00, 0x00, 0x00,
  0x01, 0x00, 0x00, 0x00, 0x08, 0x00, 0x00, 0x00, 0x1a, 0x00, 0x00, 0x00,
  0x73, 0x65, 0x71, 0x75, 0x65, 0x6e, 0x74, 0x69, 0x61, 0x6c, 0x2f, 0x63,
  0x6f, 0x6e, 0x76, 0x32, 0x64, 0x5f, 0x31, 0x2f, 0x43, 0x6f, 0x6e, 0x76,
  0x32, 0x44, 0x00, 0x00, 0x58, 0xdd, 0xff, 0xff, 0x62, 0xde, 0xff, 0xff,
  0x04, 0x00, 0x00, 0x00, 0x80, 0x01, 0x00, 0x00, 0x2a, 0xb5, 0x5f, 0x3e,
  0xd1, 0x24, 0x57, 0xbd, 0xd8, 0x59, 0xe8, 0x3b, 0x10, 0x46, 0xbd, 0x3e,
  0x11, 0xc0, 0x26, 0x3e, 0xc1, 0x91, 0x2d, 0x3d, 0x67, 0x76, 0x92, 0xbb,
  0xe2, 0xf7, 0xcf, 0xbc, 0x39, 0xd9, 0xee, 0x3d, 0x41, 0xf4, 0x4c, 0xbe,
  0xd5, 0x87, 0x82, 0xbd, 0x2c, 0xea, 0x8c, 0xbe, 0x77, 0x59, 0x78, 0x3e,
  0x2c, 0x08, 0x02, 0x3d, 0x6a, 0x21, 0x88, 0xbe, 0x3a, 0x04, 0x5b, 0x3d,
  0xfc, 0x52, 0x0b, 0x3e, 0xc1, 0x6c, 0xe0, 0xbd, 0xf4, 0xc4, 0xb5, 0x3d,
  0xe4, 0xf5, 0x7f, 0xbe, 0x66, 0xc4, 0x02, 0x3d, 0x3d, 0x13, 0x32, 0x3e,
  0x50, 0x60, 0xdb, 0xbd, 0x04, 0x47, 0x5d, 0x3e, 0xcf, 0xee, 0x20, 0x3b,
  0x39, 0x8f, 0xbd, 0x3d, 0x44, 0x59, 0x9e, 0xbe, 0xde, 0x9d, 0x33, 0xbd,
  0xce, 0xaa, 0x71, 0x3e, 0x67, 0x67, 0x93, 0xbe, 0xd9, 0x0e, 0x4f, 0xbd,
  0x96, 0x8b, 0x35, 0xbe, 0x14, 0x96, 0xd8, 0x3b, 0xb4, 0xbf, 0x1c, 0x3e,
  0x69, 0x54, 0x7c, 0xbe, 0x0b, 0xc9, 0x60, 0x3e, 0x9d, 0x40, 0xd0, 0x3e,
  0x63, 0x8a, 0x81, 0x3d, 0xf0, 0x21, 0xac, 0xba, 0x6f, 0x67, 0xb6, 0x3e,
  0x03, 0x40, 0x45, 0x3e, 0x68, 0xb0, 0x09, 0x3e, 0x8d, 0xad, 0x95, 0xbd,
  0xca, 0x8a, 0x3b, 0xbe, 0x4e, 0x13, 0x25, 0xbe, 0x91, 0xf8, 0xda, 0xbe,
  0xc7, 0x84, 0x2d, 0xbe, 0xd2, 0xb0, 0xf2, 0x3c, 0x06, 0x3e, 0x03, 0xbd,
  0x6b, 0xd8, 0xc0, 0xbd, 0xde, 0x4f, 0xe2, 0xbd, 0x07, 0x9c, 0x9d, 0xbe,
  0xd3, 0x69, 0xc6, 0xbe, 0xcf, 0x6e, 0xcc, 0xbe, 0xc5, 0xf4, 0x3d, 0x3e,
  0x74, 0x22, 0x03, 0x3e, 0x7a, 0x3c, 0x0b, 0x3e, 0xc3, 0xf1, 0x37, 0x3e,
  0xa2, 0x48, 0x8e, 0x3e, 0xdf, 0xb1, 0x8c, 0x3e, 0x98, 0xc2, 0x28, 0x3d,
  0x75, 0x3d, 0xc2, 0x3c, 0x20, 0x27, 0x60, 0xbd, 0x69, 0x5d, 0x80, 0xbd,
  0x06, 0x5f, 0x26, 0xbe, 0x71, 0x4c, 0x9d, 0xbd, 0x61, 0x6c, 0xc6, 0xbd,
  0x82, 0x36, 0x91, 0xbd, 0x9b, 0x9e, 0x97, 0x3d, 0x1a, 0x23, 0x1e, 0xbe,
  0x9a, 0xe5, 0xf9, 0x3b, 0x25, 0xc6, 0x90, 0x3d, 0x31, 0x3b, 0xd4, 0xbc,
  0x27, 0x5e, 0x00, 0x3e, 0xe1, 0x92, 0x05, 0xbe, 0x18, 0xb5, 0xf8, 0xbd,
  0xd7, 0x67, 0xd0, 0x3d, 0xef, 0xf4, 0x52, 0x3d, 0x4e, 0xa2, 0x4a, 0x3e,
  0xdb, 0x13, 0x1d, 0xbe, 0x3c, 0x83, 0xd1, 0x3c, 0xaa, 0x18, 0x23, 0x3d,
  0xd6, 0x33, 0xdc, 0x3d, 0x22, 0x37, 0x05, 0x3d, 0x5e, 0xff, 0x30, 0xbc,
  0xdb, 0x61, 0xd4, 0xbe, 0xc5, 0x39, 0xe6, 0x3b, 0x17, 0xff, 0xac, 0xbd,
  0xd5, 0x33, 0x11, 0x3e, 0x70, 0x31, 0x46, 0xbc, 0x25, 0x7f, 0x2e, 0xbd,
  0xb2, 0xb6, 0x84, 0xbd, 0x0e, 0x9c, 0x25, 0x3d, 0x17, 0x15, 0x02, 0xbd,
  0xde, 0x51, 0xe7, 0x3a, 0x9b, 0xc0, 0x0b, 0xbe, 0xba, 0xdf, 0xff, 0xff,
  0x10, 0x00, 0x00, 0x00, 0x09, 0x00, 0x00, 0x00, 0x1c, 0x00, 0x00, 0x00,
  0x38, 0x00, 0x00, 0x00, 0x04, 0x00, 0x00, 0x00, 0x08, 0x00, 0x00, 0x00,
  0x04, 0x00, 0x00, 0x00, 0x03, 0x00, 0x00, 0x00, 0x01, 0x00, 0x00, 0x00,
  0x18, 0x00, 0x00, 0x00, 0x73, 0x65, 0x71, 0x75, 0x65, 0x6e, 0x74, 0x69,
  0x61, 0x6c, 0x2f, 0x63, 0x6f, 0x6e, 0x76, 0x32, 0x64, 0x2f, 0x43, 0x6f,
  0x6e, 0x76, 0x32, 0x44, 0x00, 0x00, 0x00, 0x00, 0x30, 0xdf, 0xff, 0xff,
  0x3a, 0xe0, 0xff, 0xff, 0x04, 0x00, 0x00, 0x00, 0x00, 0x01, 0x00, 0x00,
  0x45, 0xce, 0xc7, 0xbe, 0x43, 0x6d, 0xd7, 0xbe, 0xe5, 0x84, 0x64, 0xbe,
  0x32, 0x7a, 0xa1, 0x3a, 0x78, 0xf6, 0x10, 0xbf, 0xcf, 0x70, 0x38, 0xbe,
  0x0a, 0x03, 0x49, 0x3e, 0x7c, 0x3c, 0xd7, 0x3e, 0xce, 0x6c, 0x6b, 0x3e,
  0x6b, 0xff, 0x48, 0xbe, 0x17, 0xed, 0x4b, 0x3e, 0x22, 0xdd, 0x09, 0xbe,
  0x42, 0xe9, 0x94, 0x3c, 0x52, 0xfd, 0x83, 0x3e, 0x6e, 0x25, 0xb8, 0x3e,
  0x8b, 0x9c, 0x32, 0x3e, 0x48, 0x97, 0x3b, 0xbf, 0xdc, 0x32, 0xaa, 0xbe,
  0x5b, 0x58, 0xa4, 0xbe, 0x03, 0x72, 0xde, 0x3d, 0xeb, 0xaa, 0xfd, 0xbe,
  0x53, 0xb2, 0x27, 0x3e, 0xad, 0xf6, 0x12, 0x3e, 0xf6, 0x41, 0x31, 0xbf,
  0xda, 0x66, 0x3f, 0x3e, 0x52, 0x17, 0xd4, 0xbe, 0xeb, 0xac, 0x53, 0x3e,
  0x6c, 0x58, 0xb5, 0xbe, 0x22, 0xa5, 0x6f, 0xbd, 0x07, 0x7a, 0x5b, 0xbe,
  0x91, 0x92, 0x28, 0x3e, 0x35, 0x9b, 0x08, 0xbf, 0x7a, 0x3f, 0xb3, 0xbe,
  0xd3, 0xd4, 0xab, 0xbe, 0x92, 0xb5, 0xc8, 0xbd, 0x09, 0xc4, 0x84, 0x3e,
  0xee, 0x2d, 0x8d, 0xbd, 0xa7, 0x72, 0x80, 0x3e, 0xb9, 0x6e, 0x0b, 0x3e,
  0x8f, 0xc7, 0xdf, 0x3e, 0x28, 0x5c, 0x91, 0x3e, 0x3d, 0x4d, 0xbc, 0xbe,
  0x48, 0x12, 0x31, 0x3e, 0x07, 0x83, 0xb6, 0x3d, 0xfb, 0x11, 0x3c, 0xbf,
  0xb1, 0x7e, 0xba, 0x3c, 0xd3, 0x0c, 0x82, 0x3e, 0xa0, 0x70, 0x00, 0xbf,
  0x3a, 0x61, 0x54, 0xbe, 0x8e, 0x4a, 0x88, 0xbe, 0x6d, 0x3a, 0x58, 0xbe,
  0xdc, 0x95, 0x32, 0x3e, 0x5b, 0x97, 0x0f, 0xbd, 0x74, 0xac, 0x83, 0x3e,
  0x7a, 0x4d, 0x12, 0x3e, 0x81, 0x15, 0xbd, 0xbd, 0x66, 0x1a, 0x99, 0x3e,
  0xff, 0x66, 0x8f, 0xbe, 0xa8, 0x21, 0xcf, 0x3d, 0x3c, 0xed, 0x97, 0x3d,
  0x08, 0x3d, 0x90, 0xbe, 0x6e, 0xd4, 0x9e, 0x3e, 0x4f, 0x43, 0xb0, 0x3e,
  0x82, 0xbb, 0xd6, 0x3d, 0x12, 0xe1, 0xff, 0xff, 0x10, 0x00, 0x00, 0x00,
  0x08, 0x00, 0x00, 0x00, 0x14, 0x00, 0x00, 0x00, 0x30, 0x00, 0x00, 0x00,
  0x02, 0x00, 0x00, 0x00, 0x04, 0x00, 0x00, 0x00, 0x10, 0x00, 0x00, 0x00,
  0x19, 0x00, 0x00, 0x00, 0x73, 0x65, 0x71, 0x75, 0x65, 0x6e, 0x74, 0x69,
  0x61, 0x6c, 0x2f, 0x64, 0x65, 0x6e, 0x73, 0x65, 0x5f, 0x31, 0x2f, 0x4d,
  0x61, 0x74, 0x4d, 0x75, 0x6c, 0x00, 0x00, 0x00, 0x80, 0xe0, 0xff, 0xff,
  0x8a, 0xe1, 0xff, 0xff, 0x04, 0x00, 0x00, 0x00, 0x00, 0x1c, 0x00, 0x00,
  0xc6, 0x99, 0xa3, 0xbd, 0x45, 0xa3, 0x28, 0xbd, 0xed, 0x2a, 0xa4, 0xbd,
  0x1f, 0xc8, 0xe6, 0xb9, 0x93, 0xc9, 0x05, 0xbd, 0x56, 0xde, 0x2b, 0xbe,
  0x1f, 0xca, 0x0e, 0x3d, 0x7b, 0xe1, 0x51, 0x3e, 0x36, 0x10, 0x53, 0xbe,
  0x7b, 0x39, 0x4e, 0x3c, 0x82, 0x4b, 0xfd, 0xbd, 0x40, 0x92, 0x01, 0xbe,
  0xb7, 0x8d, 0x0f, 0xbe, 0x7e, 0x86, 0x10, 0x3e, 0x13, 0x90, 0x95, 0xbd,
  0x8c, 0x99, 0x14, 0xbe, 0x15, 0xcd, 0xb2, 0x3d, 0xbe, 0xb1, 0x86, 0xbe,
  0xba, 0x42, 0xd2, 0xbd, 0xa4, 0xc8, 0x29, 0x3d, 0xb6, 0xb1, 0xb7, 0xbd,
  0xa6, 0x0d, 0xc3, 0x3d, 0x8f, 0x90, 0xb6, 0xbd, 0x31, 0xa8, 0xe9, 0x3d,
  0x65, 0x44, 0xbe, 0xbd, 0x63, 0xac, 0x46, 0xbe, 0xe5, 0x56, 0x34, 0x3d,
  0x19, 0xa6, 0xe2, 0xbc, 0x9e, 0xce, 0x28, 0xbd, 0xa7, 0x89, 0xf1, 0x3d,
  0x39, 0x8f, 0xd5, 0xbd, 0xec, 0xe6, 0x13, 0x3e, 0xf2, 0x33, 0xdc, 0xbd,
  0xd9, 0x80, 0x4c, 0x3e, 0x01, 0x88, 0x87, 0xbe, 0x2a, 0x37, 0xf2, 0xbd,
  0xa1, 0xde, 0x12, 0xbd, 0x85, 0xe5, 0x3e, 0xbe, 0xf2, 0x33, 0xf3, 0x3d,
  0xf9, 0x72, 0x12, 0x3d, 0x68, 0xd5, 0xcc, 0xbd, 0xa5, 0x99, 0x35, 0xbe,
  0x30, 0xb8, 0xc1, 0x3d, 0xe6, 0xbb, 0x3b, 0x3e, 0x4c, 0xff, 0xf8, 0xbd,
  0x09, 0x7c, 0x32, 0xbd, 0xfb, 0x6d, 0x9d, 0x3d, 0x32, 0x98, 0x8f, 0x3c,
  0x8f, 0x19, 0xdf, 0xbd, 0x4c, 0xa9, 0x6b, 0xbd, 0x4a, 0xdd, 0x81, 0xbc,
  0xdc, 0xec, 0xe7, 0xbc, 0xac, 0xcf, 0xbe, 0x3c, 0x54, 0x7b, 0x63, 0xbe,
  0x9c, 0x44, 0x06, 0x3d, 0x11, 0x3f, 0xa2, 0x3e, 0xea, 0x36, 0xce, 0x3d,
  0x30, 0x80, 0x47, 0xbd, 0xf6, 0x28, 0x1c, 0x3e, 0x7c, 0x61, 0xf5, 0x3d,
  0x99, 0xe8, 0xea, 0x3c, 0xe6, 0x0e, 0x2f, 0x3e, 0xc7, 0xec, 0x00, 0x3e,
  0x62, 0x3e, 0x8a, 0x3e, 0xfe, 0xde, 0x87, 0xbe, 0xd9, 0xa7, 0x71, 0x3d,
  0xbb, 0x45, 0x2c, 0xbe, 0xe7, 0x8f, 0x46, 0xbe, 0xe4, 0x6b, 0xa9, 0x3d,
  0x9b, 0xcb, 0x22, 0xbe, 0xd1, 0x8d, 0xbf, 0xbb, 0xfe, 0x84, 0x0c, 0xbe,
  0x28, 0x34, 0x3e, 0xbc, 0x96, 0xa2, 0x48, 0xbe, 0x5b, 0xb9, 0x5b, 0xbc,
  0x37, 0x41, 0xd5, 0xbd, 0xa0, 0xab, 0x52, 0xbe, 0x45, 0x85, 0xbe, 0x3e,
  0xc9, 0x79, 0x84, 0xbe, 0x5c, 0x04, 0xa8, 0x3c, 0xf4, 0x73, 0x1a, 0x3d,
  0x7e, 0xac, 0xcb, 0xbd, 0x16, 0x6a, 0x66, 0xbc, 0x1c, 0x4f, 0x56, 0xbe,
  0x0c, 0x09, 0x0c, 0x3e, 0xc5, 0x90, 0x01, 0xbd, 0xef, 0x6e, 0x5e, 0xbd,
  0x95, 0x9e, 0x93, 0x3c, 0x05, 0x03, 0xdc, 0xbd, 0xba, 0x94, 0x7e, 0xbe,
  0x03, 0xdb, 0xe6, 0xbd, 0xe7, 0xcd, 0xd7, 0x3b, 0xd6, 0x64, 0xcf, 0xbd,
  0x7c, 0x0e, 0x03, 0x3e, 0xca, 0x99, 0xa7, 0x3d, 0x1e, 0x3e, 0x98, 0x3e,
  0x3a, 0x53, 0x6f, 0xbd, 0x16, 0x8c, 0x47, 0xbe, 0x20, 0xc2, 0xcf, 0xbd,
  0x2c, 0x35, 0x98, 0xbd, 0xd5, 0xdc, 0x19, 0xbd, 0x35, 0xed, 0x9e, 0x3c,
  0x26, 0xb7, 0xa2, 0x3d, 0x43, 0xe3, 0xfb, 0xbd, 0x86, 0x4d, 0x32, 0xbe,
  0x9a, 0xb7, 0xb8, 0xbe, 0x54, 0x87, 0x14, 0xbe, 0xc5, 0x7a, 0x6a, 0xbe,
  0x9d, 0x89, 0x17, 0x3e, 0xf1, 0x43, 0x8a, 0xbd, 0xc3, 0x00, 0x35, 0xbe,
  0x14, 0x60, 0xdb, 0xbd, 0x9f, 0x34, 0xea, 0xbd, 0x90, 0x98, 0x6f, 0x3d,
  0xd1, 0xd1, 0x0e, 0x3e, 0x23, 0x3f, 0x63, 0xbe, 0x23, 0xf0, 0x71, 0x3e,
  0x15, 0x57, 0xee, 0x3d, 0x29, 0x23, 0x19, 0x3d, 0xc9, 0x98, 0x25, 0x3e,
  0x66, 0x31, 0x17, 0xbe, 0x3e, 0xd3, 0x1e, 0xbd, 0x18, 0x86, 0xc6, 0xbd,
  0x2b, 0x0a, 0x6f, 0xbd, 0x33, 0x5f, 0x1c, 0xbe, 0xd6, 0xfc, 0x55, 0x3d,
  0xd3, 0x34, 0x08, 0xbe, 0x78, 0xca, 0x7c, 0x3e, 0xd7, 0x70, 0xca, 0xbd,
  0x90, 0x2d, 0xf7, 0x3d, 0x63, 0xe6, 0x52, 0xbd, 0x8c, 0x5d, 0x7c, 0x3d,
  0x8e, 0x88, 0x46, 0xbd, 0x4c, 0xca, 0x4c, 0xbd, 0x6f, 0xaf, 0x36, 0x3e,
  0x89, 0xd7, 0x37, 0xbd, 0x54, 0x12, 0x6a, 0xbe, 0x1a, 0xcf, 0x6d, 0xbe,
  0xe6, 0xf8, 0x37, 0x3d, 0x93, 0x7e, 0x43, 0xbc, 0xc9, 0xdb, 0x61, 0xbd,
  0xdc, 0xb6, 0x4b, 0xbe, 0xc2, 0x1f, 0x48, 0xbd, 0xc2, 0x46, 0x0e, 0xbc,
  0xe3, 0xb0, 0x50, 0x3d, 0xc5, 0xee, 0x85, 0x3e, 0xc1, 0xf7, 0xcd, 0xbd,
  0xa7, 0x48, 0x4f, 0xbb, 0x73, 0x15, 0x1f, 0xbe, 0x12, 0xc3, 0xa9, 0xbe,
  0xf3, 0x60, 0xfa, 0x3d, 0xea, 0xf5, 0x89, 0x3d, 0x64, 0x68, 0x9e, 0x3d,
  0xe6, 0xf9, 0xa3, 0xbe, 0x45, 0xa4, 0xfb, 0x3c, 0xfd, 0x6d, 0xc9, 0x3e,
  0x64, 0x81, 0x6d, 0x3e, 0xad, 0x3f, 0x67, 0x3d, 0x8d, 0xaa, 0x98, 0xbd,
  0x7b, 0x82, 0xa5, 0x3e, 0xfa, 0x00, 0x1b, 0xbe, 0xdd, 0x37, 0x02, 0x3b,
  0xc3, 0x61, 0x50, 0x3e, 0x3f, 0xcb, 0x37, 0xbe, 0x88, 0x0c, 0x98, 0xbd,
  0x3c, 0x2f, 0x13, 0xbe, 0xc2, 0x31, 0x0b, 0x3e, 0xb0, 0xfb, 0xce, 0x3d,
  0xda, 0xaa, 0x90, 0x3d, 0xb6, 0x3e, 0x0e, 0xbf, 0x17, 0xff, 0x87, 0xbe,
  0x50, 0x17, 0x0e, 0x3e, 0x4c, 0xcf, 0x0f, 0x3e, 0xca, 0x6e, 0x88, 0xbd,
  0xaa, 0x86, 0x79, 0xbb, 0x2a, 0xc6, 0x8c, 0xb9, 0x99, 0x3f, 0xc1, 0xbd,
  0x6c, 0xa2, 0x9b, 0x3c, 0x0d, 0xfd, 0x23, 0x3e, 0xfc, 0xc8, 0x60, 0xbe,
  0x0f, 0x9e, 0xea, 0x3c, 0x3a, 0x17, 0x61, 0xbe, 0x46, 0xbe, 0x54, 0x3e,
  0xd5, 0xb0, 0x54, 0x3e, 0xfb, 0x5e, 0x31, 0xbd, 0xba, 0xaa, 0xdb, 0xbe,
  0x86, 0x59, 0x42, 0x3e, 0x82, 0xed, 0x6c, 0xbc, 0xf9, 0x2a, 0x14, 0x3e,
  0x1e, 0x01, 0x1d, 0xbe, 0xc8, 0x81, 0x08, 0x3e, 0x2c, 0x0e, 0x5a, 0x3e,
  0xbf, 0x48, 0xa3, 0xbd, 0x30, 0x59, 0x10, 0x3e, 0x5f, 0x0d, 0xae, 0x3d,
  0xe0, 0x83, 0x08, 0xbe, 0x06, 0xf7, 0xfb, 0xbd, 0x6c, 0xd7, 0xe8, 0xbd,
  0x53, 0x95, 0x23, 0x3d, 0x57, 0xcc, 0xb5, 0x3b, 0x80, 0xa1, 0x91, 0xbd,
  0xa3, 0x34, 0x87, 0xbe, 0x10, 0x45, 0x7b, 0xbe, 0xa7, 0x39, 0xb2, 0x3c,
  0x47, 0x86, 0xc0, 0x3d, 0x74, 0x5e, 0x5c, 0x3d, 0xa4, 0xf1, 0x4a, 0x3d,
  0x37, 0x1a, 0x15, 0x3e, 0xb8, 0x0f, 0x15, 0x3d, 0x21, 0x3d, 0xca, 0xbd,
  0x00, 0xb5, 0x26, 0xbe, 0x31, 0x7f, 0x95, 0xbc, 0xb2, 0x63, 0x3b, 0x3d,
  0xa3, 0xf0, 0xc7, 0x3c, 0x84, 0x04, 0xb2, 0x3d, 0x49, 0xd7, 0x99, 0x3d,
  0x1a, 0x10, 0xbf, 0xbe, 0x6d, 0x3d, 0xde, 0xbe, 0x15, 0x3f, 0xf9, 0xbd,
  0x19, 0xa2, 0x6d, 0x3e, 0xca, 0x3c, 0x5c, 0x3e, 0x35, 0x80, 0xe5, 0x3c,
  0xc6, 0xa2, 0x7c, 0x3d, 0x4d, 0x7a, 0x50, 0xbd, 0x89, 0x4e, 0xf6, 0xbe,
  0xbd, 0xe3, 0xd9, 0xbd, 0x2f, 0x26, 0x1a, 0xbe, 0x76, 0xf4, 0x11, 0xbe,
  0xa1, 0xf6, 0x1a, 0x3e, 0xf4, 0xeb, 0x65, 0xbe, 0x72, 0x0f, 0x2d, 0x3c,
  0x2f, 0xff, 0x83, 0x3d, 0x39, 0xb3, 0x23, 0xbf, 0x26, 0xba, 0xa3, 0xbe,
  0x90, 0x9e, 0x75, 0x3e, 0xd8, 0x8e, 0x08, 0x3e, 0xf4, 0xcb, 0xfb, 0xba,
  0x68, 0xa5, 0x9f, 0x3c, 0xf6, 0x06, 0xd4, 0xbd, 0x7a, 0x89, 0x8b, 0xbd,
  0x85, 0xfa, 0xa3, 0xbe, 0x8e, 0x48, 0x56, 0x3e, 0xe8, 0x23, 0xa2, 0xbe,
  0x33, 0x25, 0x8c, 0xbe, 0xf5, 0x5d, 0x76, 0xbe, 0x54, 0x3a, 0xeb, 0x3d,
  0xf3, 0x96, 0xd9, 0xbe, 0xc0, 0x5b, 0x9e, 0x3d, 0x1f, 0xb2, 0xbd, 0xbd,
  0x54, 0x2b, 0xca, 0xbe, 0xa0, 0x24, 0x98, 0xbb, 0xec, 0xa4, 0xa1, 0x3e,
  0xc0, 0x4e, 0x2d, 0xbb, 0x66, 0xdd, 0x3e, 0xbe, 0xe0, 0x41, 0x1c, 0x3e,
  0x63, 0x28, 0xca, 0xbc, 0x7c, 0x26, 0xb8, 0xbe, 0x0d, 0x77, 0xd3, 0x3e,
  0xd9, 0x2d, 0x67, 0xbe, 0xdd, 0x73, 0xa2, 0xbe, 0xd7, 0x73, 0xe8, 0xbe,
  0x61, 0x0a, 0x8b, 0xbd, 0x27, 0x74, 0xb2, 0xbe, 0x69, 0x0f, 0xf4, 0x3d,
  0x49, 0xd6, 0x9e, 0xbd, 0xa8, 0x8c, 0x78, 0xbd, 0x10, 0xc0, 0x44, 0xbe,
  0x0e, 0x86, 0x9d, 0x3d, 0xbd, 0x86, 0x01, 0x3e, 0xa1, 0x0e, 0x72, 0xbe,
  0x94, 0x5e, 0x25, 0xbe, 0xe4, 0x48, 0xd2, 0xbd, 0x83, 0x06, 0xbd, 0xbd,
  0xf4, 0xd1, 0xce, 0x3e, 0x5f, 0x61, 0xf4, 0x3e, 0xf9, 0xd3, 0x44, 0xbe,
  0x88, 0x5f, 0x61, 0x3d, 0x61, 0xba, 0xde, 0xbd, 0x53, 0xd8, 0x2e, 0xbc,
  0x37, 0x1f, 0x89, 0xbd, 0xa3, 0x3d, 0x10, 0xbe, 0x38, 0xa8, 0x4f, 0x3e,
  0xaa, 0x0f, 0x4c, 0xbe, 0xeb, 0x67, 0x29, 0xbd, 0xcd, 0xa6, 0xa0, 0x3d,
  0xb1, 0x20, 0xf3, 0x3e, 0x67, 0x47, 0x95, 0xbd, 0x6f, 0x44, 0x40, 0xbc,
  0x81, 0x62, 0xe5, 0xbd, 0xc5, 0xac, 0xfe, 0x3d, 0xd9, 0xeb, 0xd8, 0x3e,
  0xbf, 0x34, 0x98, 0xbd, 0x3c, 0xf1, 0x44, 0xbd, 0xb2, 0xb9, 0x40, 0xbe,
  0x64, 0x66, 0x90, 0x3e, 0x8f, 0x0f, 0xd8, 0xbd, 0x6a, 0xce, 0x29, 0xbc,
  0x74, 0xa7, 0x67, 0x3e, 0x49, 0x44, 0x38, 0xbe, 0x1f, 0x7e, 0x05, 0x3e,
  0x24, 0xad, 0x0f, 0xbd, 0x40, 0xce, 0x8a, 0x3e, 0xf1, 0xc7, 0xb2, 0xbd,
  0x5c, 0x89, 0xdf, 0x3d, 0x46, 0x71, 0x21, 0xbe, 0x9a, 0xc6, 0x2e, 0x3e,
  0x2e, 0x76, 0xb2, 0x3e, 0xbc, 0xe3, 0x7a, 0x3d, 0x27, 0x71, 0xed, 0x3b,
  0x30, 0x88, 0x4a, 0xbe, 0xa7, 0xfc, 0x85, 0x3d, 0xd2, 0x74, 0x06, 0xbe,
  0xe1, 0xf2, 0x51, 0xbe, 0x5d, 0xc2, 0x4c, 0x3e, 0x53, 0xc4, 0xa3, 0xbc,
  0xb9, 0xb6, 0x15, 0xbd, 0x14, 0xb4, 0x1f, 0xbd, 0xf9, 0x35, 0x37, 0x3e,
  0xa8, 0xd3, 0xe2, 0xbd, 0x7f, 0xb0, 0xd1, 0xbd, 0x53, 0xe3, 0x31, 0xbe,
  0x8e, 0xd3, 0xdb, 0x3c, 0x66, 0x9d, 0xe1, 0x3d, 0x69, 0x4e, 0x23, 0x3c,
  0x12, 0x4f, 0xcb, 0xbc, 0x22, 0xfb, 0x2b, 0xbe, 0xd5, 0x91, 0x4b, 0x3d,
  0x19, 0xc4, 0x27, 0xbe, 0x86, 0xd0, 0x31, 0xbd, 0x4c, 0x86, 0x2d, 0x3e,
  0xac, 0xdb, 0x2d, 0x3a, 0xe3, 0xda, 0x6a, 0x3c, 0x26, 0x8a, 0x58, 0xbe,
  0xc2, 0x88, 0x63, 0x3e, 0x99, 0x4d, 0x87, 0x3d, 0x94, 0x41, 0x64, 0x3b,
  0x2d, 0x52, 0xb7, 0xbe, 0x9c, 0xb9, 0xe0, 0xbd, 0x93, 0x51, 0x00, 0xbf,
  0xae, 0x74, 0xc8, 0xbe, 0x9f, 0xf9, 0xe8, 0xbd, 0x29, 0xc9, 0x36, 0xbe,
  0x7f, 0x7d, 0x19, 0xbf, 0x42, 0x69, 0x2f, 0xbd, 0x49, 0xde, 0x00, 0xbf,
  0x2f, 0x1d, 0xac, 0xbe, 0x49, 0x65, 0xdb, 0xbd, 0x41, 0x08, 0xc9, 0x3d,
  0x13, 0x6b, 0xa1, 0x3d, 0x9e, 0xb9, 0x54, 0xbe, 0x0d, 0xa1, 0xee, 0xbd,
  0x5e, 0xb5, 0x88, 0x3d, 0x83, 0x0f, 0xcb, 0xbe, 0x67, 0x73, 0x08, 0x3e,
  0xe4, 0xe1, 0x36, 0x3e, 0xe3, 0xa3, 0xe3, 0xbd, 0xf7, 0x0f, 0x42, 0xbc,
  0x56, 0x1b, 0xa4, 0xbd, 0xf5, 0xc4, 0x2d, 0xbf, 0xa7, 0xfe, 0x4d, 0xbe,
  0x27, 0x22, 0x62, 0xbe, 0x63, 0xe4, 0xcf, 0xbb, 0x24, 0x3b, 0xd2, 0xbe,
  0x60, 0x87, 0x47, 0x3d, 0x23, 0x6d, 0xf5, 0xba, 0x03, 0xcf, 0x89, 0x3d,
  0x91, 0x5d, 0x7d, 0xbe, 0xaa, 0x99, 0x49, 0x3d, 0xaf, 0x9f, 0xb9, 0xbe,
  0xf0, 0x69, 0x12, 0x3f, 0xe9, 0x64, 0x2c, 0x3f, 0x3c, 0x1b, 0x87, 0xbd,
  0x55, 0x72, 0x68, 0x3d, 0xfc, 0xf8, 0xa8, 0xbd, 0x2a, 0x0a, 0x78, 0x3e,
  0x65, 0x7f, 0x88, 0xbe, 0x19, 0x70, 0x14, 0xbe, 0xda, 0x4d, 0xcc, 0x3e,
  0xa9, 0x56, 0xca, 0xbd, 0xdd, 0x8d, 0x5a, 0xbe, 0x4b, 0xe9, 0x8b, 0x3e,
  0xda, 0x0e, 0x2f, 0x3f, 0x2d, 0x0d, 0xb1, 0x3d, 0xc7, 0x7c, 0xd2, 0x3c,
  0x83, 0x8d, 0xd5, 0xbe, 0x3c, 0xe7, 0x0b, 0x3e, 0x40, 0x55, 0x1f, 0x3f,
  0x15, 0xed, 0x9b, 0x3d, 0xe9, 0x33, 0x96, 0x3e, 0x64, 0x9b, 0x32, 0xbe,
  0x30, 0x82, 0x4d, 0x3e, 0x09, 0x44, 0xe1, 0xbd, 0x30, 0x82, 0xe6, 0xbd,
  0xd9, 0xba, 0x47, 0x3e, 0x8b, 0xd6, 0x72, 0x3d, 0xf2, 0x41, 0x8e, 0x3d,
  0x53, 0x29, 0xd5, 0xbc, 0xe0, 0xbb, 0x9a, 0x3e, 0xa7, 0x67, 0x44, 0xbc,
  0x67, 0xbc, 0x2a, 0xbe, 0x9b, 0x59, 0x89, 0xbe, 0x15, 0xc2, 0x21, 0xb9,
  0x5c, 0x3c, 0xbd, 0x3e, 0xdb, 0xda, 0xf1, 0xbd, 0xe5, 0xa2, 0x2b, 0x3d,
  0xad, 0x5c, 0x10, 0x3d, 0x54, 0xcd, 0x48, 0x3e, 0x46, 0x44, 0xbc, 0xbd,
  0xda, 0xf6, 0x37, 0xbe, 0x98, 0xab, 0x4f, 0x3e, 0xc1, 0xe7, 0x22, 0x3e,
  0xbb, 0xe5, 0xa3, 0x3d, 0xca, 0x75, 0x54, 0xbe, 0xc6, 0x0c, 0xc7, 0x3e,
  0xa4, 0xc4, 0xb7, 0x3d, 0x1f, 0x85, 0x6a, 0x3d, 0xaa, 0x3c, 0x80, 0xbe,
  0xc7, 0x9d, 0x0c, 0x3d, 0xbd, 0x06, 0xaf, 0x3e, 0x12, 0x19, 0xe8, 0xbc,
  0xa3, 0x5b, 0xea, 0xbd, 0xd7, 0x29, 0x0b, 0xbe, 0xb7, 0x8f, 0x56, 0x3e,
  0xc5, 0xb9, 0x30, 0xbd, 0x60, 0x78, 0xc7, 0xbb, 0xe5, 0xc9, 0x89, 0x3d,
  0xab, 0xd3, 0x7f, 0x3d, 0x62, 0xe9, 0x7f, 0x3d, 0xec, 0xb4, 0x80, 0xbd,
  0xd3, 0xd4, 0x83, 0x3d, 0x1e, 0x8d, 0x1e, 0xbe, 0x0f, 0x92, 0x88, 0x3c,
  0x52, 0x06, 0x87, 0xbe, 0x4c, 0xf4, 0xcc, 0xbd, 0x04, 0x77, 0xbb, 0x3d,
  0xda, 0x89, 0x52, 0xbe, 0x28, 0x24, 0xfa, 0xbc, 0x46, 0x10, 0x9c, 0xbd,
  0x02, 0x7a, 0x8a, 0x3d, 0xc9, 0xa0, 0x10, 0x3b, 0x4a, 0x6a, 0x43, 0xbd,
  0x1a, 0x35, 0x1e, 0xbe, 0x44, 0x14, 0x0b, 0x3d, 0x5e, 0xe9, 0x0e, 0x3e,
  0x4c, 0xf7, 0x88, 0xbe, 0xa5, 0xd4, 0x6b, 0x3e, 0x27, 0x5d, 0x1c, 0x3d,
  0x32, 0x22, 0xb3, 0x3d, 0x98, 0x19, 0x03, 0xbe, 0xd0, 0xb6, 0x72, 0x3d,
  0x69, 0x10, 0x4f, 0xbd, 0x83, 0xd7, 0x62, 0xbe, 0x12, 0x77, 0x28, 0xbd,
  0xc5, 0x35, 0xdc, 0x3d, 0xf1, 0x76, 0x4f, 0xbd, 0x17, 0x86, 0x39, 0x3e,
  0x76, 0xc6, 0x6d, 0xbe, 0x5a, 0x67, 0x83, 0xbd, 0x8e, 0x4c, 0x81, 0xbd,
  0x8e, 0x76, 0xbd, 0xbd, 0x33, 0xf1, 0xe5, 0x3d, 0xc4, 0x48, 0xdd, 0x3d,
  0x28, 0xca, 0x13, 0xbd, 0x8b, 0x07, 0x95, 0x3e, 0x11, 0x91, 0x1c, 0x3d,
  0xa2, 0x96, 0x41, 0xbe, 0xdb, 0xae, 0x51, 0x3b, 0x56, 0x5c, 0x82, 0x3b,
  0xde, 0x15, 0x91, 0xbe, 0x52, 0x6e, 0xfd, 0x3d, 0xc0, 0xf2, 0x90, 0x3d,
  0x96, 0xcd, 0x0b, 0x3d, 0x48, 0x76, 0x2c, 0xbd, 0x6f, 0x40, 0x98, 0xbb,
  0x40, 0x07, 0x38, 0xbe, 0x0c, 0x99, 0x29, 0x3e, 0x2c, 0xd0, 0x3f, 0xbc,
  0x5f, 0xa1, 0x61, 0xbe, 0xc6, 0x8a, 0x22, 0x3e, 0x09, 0x10, 0xfd, 0x3d,
  0x44, 0x1e, 0x37, 0xbd, 0x1f, 0xd1, 0x11, 0x3d, 0x1b, 0xd9, 0x56, 0x3d,
  0xba, 0x52, 0x63, 0xbe, 0x8f, 0xab, 0x77, 0xbd, 0x51, 0x0d, 0x2c, 0xbd,
  0xc3, 0xcb, 0x87, 0x3d, 0xcf, 0xc4, 0x58, 0x3e, 0x28, 0x13, 0xed, 0xbd,
  0xb0, 0xc7, 0x41, 0xbe, 0x15, 0x43, 0x6e, 0xbe, 0x43, 0x5a, 0x14, 0xbd,
  0x18, 0x31, 0x27, 0x3e, 0xfb, 0x09, 0x32, 0xbe, 0x4e, 0x3b, 0x56, 0x3d,
  0x7f, 0xaf, 0xa9, 0xbd, 0x83, 0x98, 0x8a, 0x3c, 0xa5, 0x67, 0x3d, 0x3c,
  0x02, 0x77, 0x81, 0x3d, 0x26, 0x27, 0xe4, 0x3d, 0xd9, 0xac, 0x42, 0x3d,
  0xe7, 0xfa, 0x71, 0xbe, 0x4f, 0x53, 0xb2, 0xbc, 0xdc, 0x76, 0x08, 0x3e,
  0x0b, 0x1a, 0xac, 0xbd, 0x2e, 0xe4, 0xc2, 0xbd, 0x13, 0xf2, 0x1e, 0xbe,
  0x23, 0xd7, 0x37, 0xbd, 0xb3, 0x5e, 0x81, 0x3d, 0xb0, 0x67, 0xee, 0xbd,
  0xb1, 0xdf, 0x1e, 0x3e, 0xc4, 0x18, 0x90, 0xbc, 0x0e, 0x36, 0x7a, 0xbd,
  0x82, 0xaf, 0x0e, 0xbe, 0x3b, 0xb8, 0x45, 0xbe, 0x81, 0x1f, 0x9b, 0xbd,
  0x39, 0x0c, 0x2a, 0x3e, 0x00, 0x35, 0xae, 0x3c, 0xef, 0x05, 0x3b, 0xbe,
  0x38, 0x36, 0x86, 0x3e, 0x89, 0x72, 0x49, 0xbc, 0x64, 0x44, 0x27, 0xbe,
  0x2d, 0xb8, 0x7f, 0x3d, 0xab, 0xca, 0x94, 0x3d, 0xe0, 0x40, 0x34, 0xbe,
  0xc5, 0xcf, 0x11, 0x3e, 0x0f, 0xc9, 0xf7, 0x3c, 0xbe, 0xfe, 0x9b, 0x3e,
  0xce, 0x51, 0x35, 0xbe, 0xe3, 0xbe, 0x92, 0x3d, 0x55, 0xe5, 0x19, 0xbe,
  0x20, 0x5f, 0x36, 0xbe, 0xa3, 0xe7, 0x4a, 0x3d, 0x48, 0x6b, 0x00, 0xbe,
  0xa2, 0x7b, 0x2f, 0xbe, 0x49, 0xe9, 0x9d, 0x3d, 0x35, 0x09, 0x84, 0x3d,
  0x44, 0xd6, 0x84, 0xbe, 0xda, 0x84, 0xa6, 0x3e, 0xf2, 0x0e, 0xb6, 0x3d,
  0xa6, 0x51, 0xe9, 0x3d, 0x9a, 0x1b, 0x29, 0x3e, 0xda, 0x65, 0xe3, 0x3b,
  0x27, 0xca, 0x8d, 0x3d, 0x85, 0x0e, 0x53, 0xbe, 0xc0, 0x14, 0xa5, 0xbe,
  0x83, 0xf4, 0xe5, 0xbd, 0x7e, 0x17, 0xbe, 0x3c, 0x56, 0x54, 0x02, 0xbd,
  0x23, 0x70, 0x1d, 0xbe, 0xa3, 0xff, 0x92, 0xbb, 0x72, 0xbf, 0x17, 0x3d,
  0x25, 0xec, 0x3a, 0x3e, 0x67, 0x2f, 0xca, 0xbd, 0x5d, 0xe4, 0x0e, 0x3d,
  0xdf, 0xf5, 0x94, 0x3b, 0x9c, 0x21, 0x73, 0xbe, 0x40, 0x9e, 0x8c, 0x3e,
  0x6a, 0x36, 0x80, 0xbd, 0x26, 0x6e, 0x9b, 0x3e, 0x1e, 0xaf, 0x85, 0x3c,
  0x37, 0x65, 0x44, 0xbe, 0x08, 0x0c, 0x4d, 0xbe, 0x0d, 0xf7, 0xbd, 0xbe,
  0x27, 0x50, 0xa0, 0xbc, 0x97, 0x85, 0x71, 0x3d, 0xf6, 0xf6, 0x1e, 0xbe,
  0xfc, 0xaf, 0x26, 0x3e, 0x33, 0x3d, 0x7f, 0xbe, 0x2d, 0x5e, 0x24, 0xbe,
  0x96, 0x21, 0x42, 0x3c, 0x37, 0x5d, 0xa0, 0xbd, 0x44, 0xe9, 0x39, 0xbe,
  0x8c, 0xb9, 0x00, 0xbe, 0x45, 0xd1, 0x4d, 0xbe, 0xed, 0xb1, 0xa1, 0x3e,
  0x71, 0xb4, 0x6f, 0xbc, 0xdd, 0x8e, 0xf5, 0xbc, 0xd5, 0x56, 0x26, 0xbc,
  0xca, 0xdb, 0x83, 0x3c, 0x26, 0x18, 0x72, 0xbe, 0xb0, 0x2d, 0xa7, 0xbd,
  0x48, 0x1a, 0x1a, 0xbe, 0x30, 0x5f, 0x5f, 0xb8, 0xae, 0xbe, 0xbc, 0x3d,
  0x14, 0x63, 0x90, 0xbe, 0xda, 0x3e, 0x1f, 0x3e, 0x2f, 0x1a, 0xdf, 0x3d,
  0x17, 0x70, 0x2c, 0xbd, 0x27, 0xd0, 0x54, 0xbe, 0x11, 0x24, 0x19, 0xbe,
  0xbc, 0x69, 0x25, 0x3e, 0x17, 0x39, 0x62, 0x3d, 0x2d, 0x06, 0x4f, 0x3d,
  0x6d, 0x5a, 0x1a, 0x3e, 0x03, 0xf3, 0x05, 0x3d, 0xd8, 0x94, 0xa6, 0x3d,
  0x06, 0x79, 0x27, 0xbe, 0x4e, 0x15, 0x91, 0x3e, 0xec, 0xde, 0x94, 0xbc,
  0x86, 0xac, 0x06, 0xbe, 0x0f, 0x06, 0x27, 0xbe, 0xf8, 0xef, 0x98, 0xbb,
  0x14, 0x5c, 0x0f, 0x3e, 0x9b, 0x28, 0x29, 0xbe, 0x42, 0x06, 0xa7, 0x3d,
  0xfa, 0xf9, 0x99, 0x3c, 0xb0, 0x25, 0x09, 0x3e, 0x99, 0xea, 0x0c, 0xbd,
  0x42, 0x36, 0x03, 0xbc, 0xad, 0x32, 0xdc, 0x3e, 0xd2, 0x2e, 0x61, 0x38,
  0xdb, 0x49, 0x4e, 0x3d, 0x3a, 0x94, 0x36, 0xbe, 0x2c, 0x9a, 0x46, 0x3e,
  0xff, 0xd4, 0x70, 0x3d, 0x0b, 0x78, 0x66, 0xbe, 0xad, 0x93, 0x7f, 0xbe,
  0xaa, 0xc4, 0x73, 0xbd, 0xb2, 0x23, 0x7c, 0x3e, 0x4b, 0x51, 0x75, 0xbd,
  0x51, 0xa6, 0x4c, 0x3e, 0x54, 0x81, 0xcc, 0xbd, 0x7f, 0x67, 0xef, 0x3d,
  0x39, 0x53, 0xa9, 0xbc, 0x70, 0x94, 0x67, 0x3d, 0x97, 0x9a, 0x84, 0x3e,
  0x23, 0xdc, 0x1a, 0xbe, 0xef, 0xbb, 0x2f, 0xbe, 0x1e, 0xac, 0x2f, 0xbe,
  0x40, 0xc2, 0x5e, 0x3e, 0x53, 0x79, 0xf3, 0x3d, 0xb6, 0xca, 0xa7, 0x3c,
  0x8a, 0xe3, 0x2e, 0xbe, 0xd3, 0xc1, 0xa2, 0xbc, 0xc7, 0xed, 0xd0, 0x3d,
  0x36, 0x73, 0x6c, 0xbd, 0xe5, 0xc4, 0xd7, 0x3d, 0x23, 0xe9, 0xb5, 0x3c,
  0xf3, 0x67, 0x93, 0xbd, 0xfb, 0x75, 0x0e, 0xbd, 0x08, 0x58, 0x23, 0xbe,
  0x07, 0xe2, 0x0e, 0xbc, 0xed, 0x6d, 0x8e, 0xbe, 0x4c, 0xf1, 0xa4, 0xbd,
  0x6c, 0xf2, 0xcd, 0xbe, 0xae, 0x05, 0x55, 0xbe, 0x6d, 0x4e, 0x31, 0xbd,
  0x0a, 0x11, 0x4a, 0xbd, 0x83, 0x3d, 0x84, 0xbe, 0x31, 0x96, 0xf5, 0x3d,
  0x45, 0x58, 0x25, 0x3d, 0x7c, 0x0c, 0x16, 0x3e, 0x77, 0x9e, 0xfe, 0x3a,
  0x12, 0xb9, 0x55, 0xbe, 0x6d, 0x82, 0x95, 0x3e, 0x37, 0xd3, 0xec, 0xbb,
  0x90, 0xa3, 0xb1, 0x3d, 0x7e, 0xee, 0xa3, 0xbe, 0xd9, 0x47, 0x99, 0xbe,
  0x83, 0x6f, 0x4e, 0xbe, 0x6f, 0xa2, 0x00, 0xbe, 0xfd, 0x46, 0x66, 0xbd,
  0xd5, 0x19, 0xee, 0x3d, 0xbf, 0x93, 0xc1, 0x3d, 0xe8, 0x3e, 0x44, 0xbe,
  0x7a, 0xfe, 0xb5, 0x3d, 0xe2, 0xcb, 0xa0, 0x3d, 0x32, 0xad, 0x3c, 0x3d,
  0xbd, 0x37, 0x3b, 0xbd, 0x78, 0x55, 0x2a, 0xbe, 0x3a, 0xc3, 0x5c, 0x3e,
  0x23, 0x6f, 0x5b, 0xbd, 0x29, 0x17, 0x76, 0x3e, 0xe3, 0xe3, 0xc9, 0x3c,
  0x5d, 0x85, 0xa3, 0xbd, 0x6f, 0x23, 0x06, 0x3f, 0x8c, 0x4f, 0x72, 0x3c,
  0x83, 0x4f, 0xe9, 0xbe, 0xec, 0x14, 0x9e, 0xbe, 0x91, 0x12, 0x5a, 0x3c,
  0x65, 0x87, 0x89, 0x3e, 0xd7, 0x5e, 0x69, 0xbe, 0x2a, 0x36, 0x71, 0xbe,
  0x8f, 0xec, 0x95, 0x3e, 0xc5, 0x53, 0x72, 0x3e, 0xf9, 0x79, 0x9d, 0xbe,
  0xfc, 0xda, 0x43, 0xbc, 0x2c, 0x38, 0xc9, 0xbd, 0x67, 0x8d, 0x23, 0x3e,
  0xb8, 0xb6, 0x2a, 0xbe, 0xa4, 0x43, 0x79, 0xbe, 0xb6, 0xd7, 0x97, 0x3e,
  0x8d, 0xf5, 0x7e, 0x3e, 0xb6, 0xb8, 0xc4, 0xbd, 0xb3, 0x4f, 0x35, 0xbf,
  0x96, 0xae, 0x62, 0x3c, 0xca, 0xca, 0xa4, 0xbc, 0xaf, 0x84, 0x21, 0xbf,
  0x84, 0xeb, 0x47, 0xbe, 0xdb, 0x7f, 0x56, 0x3e, 0x6b, 0x5b, 0x1e, 0x3e,
  0x22, 0xcc, 0xb1, 0xbc, 0xe6, 0x9a, 0xcd, 0xbe, 0x49, 0xb9, 0x76, 0xbc,
  0x79, 0xa3, 0x32, 0x3e, 0xdd, 0xad, 0x9e, 0xbc, 0xd6, 0x08, 0x9d, 0x3c,
  0xe2, 0xf4, 0x2d, 0x3f, 0x80, 0xbe, 0xa8, 0x3e, 0x24, 0x9b, 0x40, 0xbe,
  0x19, 0x5e, 0x24, 0xbf, 0xef, 0x98, 0x1e, 0x3e, 0xd8, 0xf2, 0xb7, 0xbd,
  0xf8, 0xcb, 0x3e, 0xbe, 0x3e, 0x83, 0x63, 0x3e, 0x9c, 0xbf, 0x00, 0x3f,
  0x45, 0x33, 0x30, 0xbd, 0x8b, 0x61, 0x2a, 0x3e, 0xf8, 0x2c, 0x92, 0xbe,
  0x9a, 0x5b, 0x99, 0xbc, 0x16, 0x5d, 0x65, 0x3e, 0x6d, 0xd3, 0xe7, 0x3d,
  0x14, 0x8a, 0x0d, 0xbd, 0x98, 0xa6, 0x9f, 0x3e, 0x7c, 0x03, 0xb8, 0x3e,
  0x35, 0xe3, 0x49, 0xbd, 0x12, 0xde, 0x1f, 0xbf, 0xf8, 0xe9, 0x5a, 0x3e,
  0xa0, 0xc3, 0x85, 0xbd, 0x73, 0x30, 0xba, 0x3d, 0x96, 0xf7, 0x4c, 0xbc,
  0x44, 0x99, 0x90, 0x3e, 0x36, 0x86, 0x09, 0x3e, 0x24, 0xbe, 0x0e, 0xbe,
  0xaa, 0x1f, 0x92, 0xbe, 0x1f, 0x5f, 0x00, 0xbd, 0x8e, 0xec, 0x22, 0x3e,
  0x16, 0xe0, 0x5a, 0xbd, 0x62, 0x09, 0x8e, 0xbe, 0x5e, 0xed, 0xba, 0x3e,
  0x5b, 0x83, 0x66, 0x3e, 0x00, 0xc5, 0xea, 0xbe, 0xf7, 0x11, 0xf5, 0xbc,
  0xcc, 0x1a, 0xb3, 0x3d, 0xf0, 0x6a, 0xeb, 0xbc, 0xd9, 0x03, 0xd9, 0xbe,
  0x89, 0x66, 0x78, 0xbd, 0xeb, 0x07, 0xb2, 0x3e, 0x50, 0xb8, 0x32, 0x3e,
  0x96, 0x85, 0x92, 0xbe, 0x91, 0x6e, 0x79, 0xbe, 0x6f, 0x76, 0x0a, 0x3d,
  0x11, 0xfa, 0xa5, 0x3e, 0x8e, 0x12, 0x7d, 0xbc, 0xa6, 0x63, 0x3a, 0xbe,
  0x54, 0x68, 0xf2, 0x3e, 0xc2, 0x98, 0x4d, 0x3e, 0xcb, 0xe2, 0xe6, 0xbe,
  0xe7, 0xf3, 0x86, 0xbd, 0xd1, 0xcc, 0xba, 0xbd, 0x44, 0xc1, 0xbe, 0xbb,
  0x94, 0x70, 0xb3, 0xbe, 0xe3, 0xe3, 0x01, 0xbf, 0x7e, 0xca, 0xb0, 0x3e,
  0x5e, 0x3c, 0x0b, 0x3e, 0x82, 0xfa, 0xc8, 0xbe, 0xb3, 0x16, 0x37, 0xbe,
  0xf4, 0x4d, 0xf8, 0x3c, 0xec, 0xac, 0x98, 0xbc, 0x71, 0xf5, 0x15, 0xbd,
  0x1a, 0xcd, 0xe9, 0xbd, 0xc7, 0xc7, 0xef, 0x3e, 0x89, 0x63, 0xd4, 0x3d,
  0x39, 0xb4, 0x20, 0xbe, 0xd4, 0xf7, 0x28, 0xbe, 0x6c, 0xd3, 0x14, 0xbd,
  0x26, 0xc0, 0x80, 0x3c, 0x88, 0xff, 0x09, 0xbf, 0xdb, 0x5d, 0xdb, 0xbe,
  0x7e, 0xec, 0x24, 0xbd, 0x90, 0xa3, 0x86, 0x3e, 0x33, 0x84, 0x33, 0xbe,
  0x5f, 0x6e, 0xaf, 0xbe, 0x2b, 0xa2, 0x10, 0xbf, 0xba, 0xc6, 0xea, 0xbe,
  0x65, 0x33, 0x76, 0xbe, 0x91, 0x92, 0x12, 0x3d, 0x7b, 0x36, 0xe0, 0x3c,
  0xfe, 0xfd, 0xd9, 0xbd, 0x7e, 0xce, 0x4c, 0xbe, 0x11, 0xfd, 0x9f, 0xbd,
  0xfd, 0x3f, 0xe1, 0xbe, 0x6e, 0xbe, 0x82, 0xbe, 0x80, 0xc4, 0xb3, 0x3c,
  0xdf, 0x61, 0x59, 0xbd, 0x5a, 0xb4, 0x9b, 0x3c, 0x03, 0x2e, 0x94, 0xbe,
  0x12, 0x33, 0xd2, 0xbd, 0xbc, 0xb5, 0x62, 0xbd, 0x35, 0xd0, 0x18, 0xbf,
  0x39, 0x0d, 0x36, 0x3e, 0x95, 0x17, 0xbb, 0x3e, 0x42, 0x64, 0xa8, 0xbd,
  0xc5, 0x10, 0x3a, 0x3e, 0xce, 0xeb, 0x14, 0x3e, 0xf3, 0x9c, 0x28, 0xbe,
  0x16, 0xb4, 0x55, 0xbe, 0x14, 0x9c, 0xcb, 0xbd, 0x23, 0xdb, 0x5c, 0xbd,
  0x82, 0xf8, 0xb9, 0x3c, 0x74, 0xd0, 0xc3, 0x3d, 0x3e, 0x43, 0x4a, 0xbe,
  0xea, 0x26, 0x0e, 0x3e, 0x6c, 0x6b, 0x44, 0xbc, 0xb3, 0x62, 0xe6, 0xbd,
  0x03, 0x91, 0xad, 0xbe, 0xd9, 0x9e, 0x0f, 0x3f, 0xc8, 0xe7, 0xa0, 0x3e,
  0xe5, 0x86, 0x74, 0xbc, 0xad, 0xfb, 0x2c, 0x3e, 0x9f, 0x73, 0x4b, 0x3d,
  0x7d, 0x35, 0x02, 0x3d, 0x82, 0x9c, 0x1a, 0xbe, 0x95, 0xb3, 0x6a, 0xbd,
  0x6f, 0xc1, 0x50, 0xbd, 0x83, 0x74, 0x2b, 0x3d, 0xb2, 0x00, 0xae, 0xbc,
  0x5f, 0x4b, 0xde, 0x3d, 0xc0, 0xe9, 0x4d, 0x3e, 0x06, 0x19, 0xda, 0xbc,
  0x46, 0xb7, 0x31, 0xbd, 0xba, 0xb1, 0xa3, 0xbe, 0xaa, 0x52, 0xa2, 0x3e,
  0x05, 0x09, 0xb0, 0x3e, 0x03, 0x54, 0xd1, 0xbc, 0x69, 0xf4, 0xa5, 0x3d,
  0x0b, 0xb7, 0x57, 0xbe, 0xd9, 0xd3, 0x60, 0x3d, 0x28, 0x23, 0x96, 0xbd,
  0xd3, 0x8c, 0x91, 0xbd, 0x3b, 0x27, 0x45, 0xbc, 0x2f, 0xc4, 0x80, 0x3d,
  0x48, 0x85, 0x42, 0xbd, 0x13, 0x23, 0xa9, 0xbd, 0xd6, 0x92, 0x93, 0x3e,
  0xe1, 0xcf, 0xb5, 0xbd, 0x76, 0x8d, 0xde, 0xbe, 0xf5, 0xaa, 0x5d, 0xbe,
  0xea, 0xae, 0x8d, 0x3e, 0x84, 0xa6, 0x58, 0x3e, 0x9e, 0x2f, 0xb1, 0xbd,
  0x14, 0x80, 0xc5, 0x3c, 0xbd, 0x0a, 0x0f, 0x3d, 0x4e, 0x80, 0x59, 0xba,
  0x14, 0x5d, 0x38, 0xbe, 0x91, 0xcf, 0x90, 0x3d, 0xfe, 0x90, 0x08, 0x3e,
  0xf2, 0x1b, 0x35, 0x3d, 0x85, 0xe0, 0x79, 0x3d, 0x48, 0x88, 0x61, 0xbe,
  0xf9, 0x49, 0x55, 0x3e, 0xe8, 0xf6, 0x93, 0xbd, 0xc4, 0x6d, 0x22, 0xbe,
  0xb2, 0x99, 0x47, 0xbe, 0x58, 0xe8, 0x91, 0x3e, 0xb2, 0x91, 0x89, 0x3e,
  0x00, 0x9f, 0x66, 0x3c, 0xe2, 0xea, 0xa6, 0x3d, 0xcf, 0x9e, 0x0c, 0xbe,
  0xd1, 0x95, 0xa8, 0x3d, 0x81, 0x39, 0x11, 0xbe, 0x04, 0x84, 0xa7, 0xbc,
  0x57, 0xcb, 0xce, 0x3d, 0x12, 0x88, 0xc8, 0x3c, 0x0c, 0xe3, 0xb3, 0x3d,
  0x99, 0x68, 0x4c, 0xbd, 0xa0, 0x9e, 0x16, 0x3e, 0x56, 0xda, 0xe1, 0xbd,
  0x47, 0xc5, 0x30, 0xbe, 0xd4, 0x4f, 0x96, 0xbe, 0x4e, 0x8a, 0x42, 0xbd,
  0xbc, 0x47, 0xae, 0x3d, 0x87, 0x6f, 0x23, 0x3e, 0xe4, 0x7f, 0x86, 0xbc,
  0xd1, 0x90, 0x38, 0xbd, 0x6e, 0xdc, 0xad, 0xbd, 0x79, 0x07, 0x58, 0xbe,
  0x11, 0x10, 0x83, 0xbd, 0x6b, 0xd9, 0x80, 0x3d, 0x53, 0x19, 0x0c, 0xbe,
  0x61, 0xd2, 0x0c, 0xbd, 0x40, 0xff, 0x8e, 0xbe, 0x5d, 0x4a, 0x72, 0x3e,
  0xcd, 0xbc, 0xe6, 0xbc, 0x6f, 0x57, 0xea, 0xbd, 0xb5, 0xc7, 0xe2, 0xbb,
  0xa2, 0x99, 0xbe, 0xbe, 0x03, 0x3e, 0xb2, 0xbe, 0xb8, 0x69, 0xff, 0xbd,
  0x36, 0xe2, 0x8c, 0xbe, 0xac, 0xb8, 0xa4, 0xbd, 0x61, 0x43, 0x5d, 0xbe,
  0x94, 0x2e, 0x9c, 0x3d, 0x22, 0xe9, 0x89, 0xbe, 0xa6, 0xf7, 0xae, 0xbd,
  0x9c, 0x65, 0x9e, 0x3d, 0xbd, 0xd8, 0x94, 0xbe, 0x51, 0xed, 0x9d, 0xbe,
  0x3d, 0x65, 0x08, 0x3c, 0x59, 0xeb, 0xce, 0xbe, 0xe0, 0x28, 0x41, 0x3e,
  0x46, 0xcc, 0x9f, 0x3c, 0x7b, 0xea, 0xc6, 0xbe, 0xdd, 0xdb, 0x1c, 0xbe,
  0xb2, 0xde, 0x5d, 0x3e, 0x69, 0x66, 0x1a, 0xbf, 0x1a, 0x52, 0xd8, 0xbd,
  0x72, 0xe9, 0x8c, 0x3e, 0x71, 0xd3, 0x5f, 0x3d, 0x6e, 0x08, 0xce, 0xbd,
  0xf7, 0xbe, 0x8b, 0x3d, 0xbc, 0x69, 0x13, 0x3e, 0x0d, 0x16, 0xa1, 0x3c,
  0x21, 0x99, 0xa6, 0xbe, 0xec, 0x40, 0x7f, 0xbe, 0xf7, 0x6f, 0xa5, 0xbc,
  0xbc, 0xd6, 0x69, 0x3e, 0x2e, 0x15, 0xbd, 0x3c, 0x8f, 0x6a, 0x26, 0xbd,
  0x28, 0x85, 0x1a, 0xbd, 0x95, 0x9e, 0x90, 0x3e, 0xab, 0xdd, 0x98, 0xbe,
  0x9c, 0xe3, 0xeb, 0xbd, 0x45, 0x2b, 0x4a, 0x3e, 0x4c, 0xe5, 0x94, 0x3d,
  0x7f, 0x15, 0x86, 0xbd, 0xdb, 0xd3, 0xe6, 0x3d, 0x7f, 0x82, 0x2d, 0x3e,
  0x21, 0x7e, 0x4e, 0x3d, 0x1c, 0x8e, 0xae, 0xbd, 0x39, 0xa3, 0x54, 0x3e,
  0xdd, 0x34, 0xec, 0x3d, 0x58, 0x0d, 0xac, 0x3e, 0xd8, 0xfa, 0xa3, 0x3c,
  0xcf, 0x0f, 0x31, 0xbe, 0xdb, 0x1e, 0x2e, 0x3e, 0xc8, 0x3a, 0x80, 0x3e,
  0x58, 0x1f, 0x71, 0xbd, 0x90, 0x89, 0x98, 0xbd, 0xdf, 0x57, 0x62, 0x3d,
  0x00, 0xc7, 0xa4, 0x3d, 0x8b, 0xdc, 0x97, 0x3d, 0xba, 0xa4, 0xef, 0x3d,
  0xf5, 0x09, 0xef, 0x3d, 0xe4, 0xee, 0xd9, 0xbc, 0x35, 0x2c, 0x78, 0xbe,
  0x27, 0x38, 0xb5, 0x3d, 0x9d, 0x21, 0x38, 0x3e, 0x56, 0x6b, 0x8f, 0x3e,
  0x40, 0x02, 0x39, 0x3d, 0x71, 0xb8, 0xf5, 0xbd, 0xc8, 0x60, 0x6f, 0x3e,
  0x16, 0x1e, 0x06, 0x3e, 0x82, 0x3d, 0x89, 0xbe, 0x4f, 0x53, 0xac, 0xbe,
  0xe6, 0x5e, 0xb0, 0x3d, 0x66, 0x4a, 0xa3, 0x3d, 0xfa, 0x5f, 0xc4, 0xbd,
  0x9c, 0x32, 0xf5, 0x3d, 0xdc, 0xc8, 0xd6, 0x3d, 0x2a, 0x83, 0xe6, 0x3d,
  0x7a, 0x6c, 0x0a, 0xbe, 0xf2, 0x18, 0xd5, 0x3c, 0x15, 0x86, 0xf3, 0xbd,
  0xe3, 0xdf, 0x9b, 0x3e, 0x0a, 0x97, 0x14, 0xbc, 0x07, 0x4c, 0x86, 0xbe,
  0xfe, 0xcc, 0x5e, 0x3e, 0xe3, 0xce, 0xd1, 0x3b, 0x86, 0xd4, 0xdd, 0xbe,
  0x05, 0x7c, 0x1a, 0xbf, 0x3a, 0x61, 0xe0, 0xbd, 0xba, 0xf2, 0x59, 0x3e,
  0x2f, 0x18, 0x69, 0xbe, 0x53, 0x0f, 0xd7, 0x3d, 0x67, 0x1f, 0x7f, 0xbd,
  0xc8, 0xae, 0x30, 0xbe, 0x1c, 0x90, 0x9e, 0xbe, 0x60, 0x13, 0x6f, 0xbd,
  0x60, 0x80, 0x30, 0xbe, 0xf6, 0x09, 0xa8, 0x3e, 0x69, 0xb0, 0x10, 0xbb,
  0xa1, 0x0e, 0xb0, 0x3c, 0x11, 0x13, 0x61, 0xbd, 0xdc, 0xe8, 0x2b, 0xbe,
  0xb8, 0x40, 0x05, 0xbf, 0x23, 0x4c, 0x31, 0xbe, 0xe8, 0x10, 0x82, 0xbc,
  0x66, 0xd4, 0x8d, 0x3d, 0x14, 0x15, 0x9e, 0x3c, 0xa5, 0xf1, 0x0a, 0xbd,
  0x4e, 0xfa, 0xf3, 0xbd, 0x02, 0x08, 0x37, 0x3d, 0xa5, 0x33, 0xe2, 0x3c,
  0x07, 0xe7, 0x6f, 0xbe, 0x32, 0xc9, 0xf5, 0xbd, 0x7b, 0x56, 0xbf, 0x3e,
  0x65, 0x26, 0x70, 0xbe, 0x82, 0x6e, 0xf0, 0x3d, 0x2c, 0xc2, 0xc3, 0x3d,
  0x88, 0xa2, 0x6e, 0xbe, 0x0c, 0xa4, 0x7a, 0xbe, 0xb3, 0xe2, 0x29, 0xbe,
  0xf8, 0x40, 0xef, 0xbd, 0x3d, 0x56, 0x3b, 0xbd, 0xf1, 0x3c, 0x7f, 0xbe,
  0xd9, 0x3e, 0x97, 0xbe, 0x1a, 0xe7, 0x48, 0x3b, 0x4d, 0x8e, 0x4e, 0xbe,
  0x50, 0xb5, 0x9b, 0x3c, 0x15, 0x47, 0x83, 0x3d, 0x9d, 0x4d, 0xa2, 0xbd,
  0xb8, 0x03, 0x19, 0x3e, 0xaf, 0xe7, 0x62, 0xbe, 0x6f, 0x19, 0x9c, 0xbd,
  0x4e, 0x5d, 0xcf, 0xbd, 0xda, 0x5c, 0x8a, 0xbe, 0x5d, 0xe6, 0x9a, 0x3c,
  0xdc, 0xc9, 0x7d, 0xbe, 0x68, 0xea, 0xc7, 0x3d, 0xcc, 0xb4, 0x01, 0xbe,
  0x57, 0x8f, 0x40, 0xbe, 0x7f, 0xd7, 0xa0, 0xbe, 0xe8, 0xec, 0x80, 0xbd,
  0x93, 0x7b, 0xb0, 0x3d, 0x05, 0xc5, 0x8e, 0xbc, 0x10, 0x26, 0x62, 0xbd,
  0xc0, 0xbb, 0x19, 0xbe, 0xb8, 0x7a, 0x4a, 0x3d, 0x70, 0x42, 0x5d, 0x3c,
  0xd0, 0x7d, 0x88, 0x3c, 0x0f, 0x9f, 0x4e, 0x3d, 0x20, 0x44, 0x0a, 0xbe,
  0x62, 0xf8, 0x26, 0xbe, 0x78, 0xc9, 0x86, 0x3d, 0xdc, 0x3f, 0x94, 0xbc,
  0xa5, 0xaa, 0x16, 0xbe, 0x4a, 0xf3, 0x4b, 0xbd, 0xc7, 0x0b, 0xa6, 0xbd,
  0xf9, 0xc0, 0xf9, 0xbd, 0xc0, 0xbc, 0x0c, 0x3e, 0x1a, 0x5a, 0x0b, 0xbe,
  0x29, 0x7b, 0xbf, 0x3d, 0xf1, 0x84, 0x17, 0x3e, 0xfe, 0xfe, 0x2f, 0xbe,
  0xc3, 0xc6, 0x39, 0xbc, 0xfc, 0x22, 0x2e, 0xbe, 0x06, 0xa9, 0xb7, 0x3d,
  0x84, 0x3c, 0xa0, 0xbd, 0x39, 0xdb, 0x10, 0x3e, 0x5f, 0x0f, 0x22, 0xbe,
  0x09, 0xf0, 0xb6, 0x3d, 0xa8, 0xfc, 0x33, 0xbe, 0xf4, 0x58, 0x68, 0xbe,
  0xb4, 0xde, 0x97, 0xbe, 0xe9, 0x53, 0x94, 0xbe, 0x71, 0x90, 0xd8, 0xbd,
  0x67, 0x63, 0x83, 0xbe, 0xa4, 0x9d, 0x3f, 0xbe, 0x57, 0x1f, 0xf7, 0xbd,
  0x4b, 0x91, 0x67, 0x3d, 0xc1, 0x00, 0xc7, 0xbd, 0x7f, 0x96, 0x52, 0xbd,
  0xb0, 0x1f, 0x67, 0xbe, 0xab, 0x36, 0x6e, 0x3d, 0xbd, 0xd8, 0xf1, 0xbd,
  0xbf, 0xaf, 0xb8, 0x3b, 0x26, 0xd8, 0xeb, 0xbd, 0x47, 0x31, 0x0c, 0xbe,
  0x5c, 0x1b, 0x3a, 0xbe, 0x74, 0x68, 0xac, 0x3c, 0x47, 0xfe, 0xa4, 0xbd,
  0xc8, 0x5e, 0x39, 0x3d, 0x7c, 0x86, 0xcd, 0x3c, 0xe3, 0x6e, 0x08, 0xbd,
  0x00, 0xb5, 0xa7, 0xbd, 0x8e, 0x1c, 0xbb, 0xbd, 0x41, 0x51, 0x00, 0xbe,
  0xc5, 0x1b, 0x1d, 0xbe, 0x6d, 0x81, 0x77, 0xbe, 0x44, 0x7d, 0x62, 0xbe,
  0x4a, 0xfe, 0x86, 0x3d, 0x02, 0xe0, 0xc8, 0x3d, 0x4c, 0xa6, 0x98, 0xbe,
  0xa6, 0xf6, 0xeb, 0x3d, 0x11, 0x17, 0xb8, 0x3b, 0x6b, 0x8b, 0x15, 0xbe,
  0x06, 0xe1, 0x5a, 0xbe, 0x43, 0xe4, 0x0a, 0x3d, 0x2d, 0x26, 0x44, 0x3e,
  0x66, 0x92, 0x46, 0xbe, 0xc6, 0x6b, 0x12, 0x3d, 0x5a, 0x2d, 0x87, 0x3d,
  0x55, 0x93, 0x09, 0xbe, 0xfc, 0xe7, 0xb8, 0xbd, 0x8f, 0x3f, 0x64, 0xbe,
  0x14, 0x1f, 0x69, 0xbe, 0x9b, 0xd8, 0xe4, 0x3d, 0x16, 0x1a, 0x5f, 0xbd,
  0x68, 0xe4, 0x86, 0x3d, 0x28, 0x97, 0xfe, 0xbc, 0x64, 0xf6, 0x91, 0xbd,
  0xef, 0xbc, 0x76, 0xbd, 0x42, 0xab, 0x93, 0xbd, 0x45, 0xac, 0x43, 0x3d,
  0x4b, 0xfd, 0x66, 0xbd, 0x1b, 0x32, 0x06, 0xbe, 0x9a, 0x59, 0x61, 0xbe,
  0x77, 0x44, 0xd8, 0xbb, 0xf0, 0x94, 0x25, 0xbc, 0x11, 0xd3, 0x2c, 0x3e,
  0x02, 0x91, 0x4b, 0x3e, 0xd7, 0xd9, 0xd4, 0x3c, 0xed, 0xf4, 0xca, 0x3d,
  0x6c, 0x99, 0x0f, 0x3d, 0xf9, 0x1f, 0xa0, 0x3e, 0x22, 0xe4, 0xc0, 0xbe,
  0xb2, 0x7d, 0xef, 0x3d, 0xe8, 0xae, 0x5f, 0xbd, 0x88, 0x1f, 0xc5, 0xbd,
  0x4d, 0x26, 0x1f, 0x3e, 0x6b, 0x0e, 0xfd, 0xbd, 0x4d, 0x01, 0x91, 0x3c,
  0x1d, 0xe7, 0x25, 0x3e, 0xb4, 0xbb, 0xb4, 0xbe, 0x46, 0x60, 0x61, 0xbc,
  0xc7, 0xfe, 0x46, 0x3e, 0xa1, 0x96, 0x81, 0xbd, 0xcb, 0x07, 0x4f, 0xbe,
  0x10, 0x7a, 0x6a, 0x3d, 0x9d, 0x94, 0xd6, 0xbc, 0x53, 0x61, 0xc5, 0xbe,
  0x19, 0x1b, 0x3b, 0xbe, 0x8b, 0x17, 0x76, 0x3c, 0x18, 0xe8, 0x59, 0x3c,
  0x53, 0xee, 0xa9, 0xbe, 0xb4, 0x27, 0x8b, 0x3e, 0x13, 0x7f, 0xf6, 0x3c,
  0x45, 0x10, 0x59, 0xbd, 0x44, 0xf4, 0x8f, 0x3d, 0x3b, 0x42, 0xcd, 0xbd,
  0xc0, 0xf6, 0x1e, 0xbd, 0x2f, 0x01, 0xee, 0x3d, 0xfa, 0x3b, 0xa0, 0x3e,
  0x22, 0x63, 0xec, 0xbe, 0xd0, 0xb0, 0x0c, 0x3e, 0xeb, 0xc9, 0x1d, 0xbe,
  0xa8, 0x11, 0xc3, 0xbb, 0x00, 0x6f, 0x13, 0xbe, 0xac, 0xbe, 0xcb, 0xbd,
  0x19, 0x09, 0x0a, 0xbc, 0xaa, 0x60, 0xb6, 0xbe, 0x59, 0xad, 0xb6, 0xbe,
  0xb9, 0x18, 0x16, 0xbd, 0x95, 0xc4, 0xa6, 0x3e, 0x9c, 0x8c, 0xfe, 0xbd,
  0x00, 0x61, 0x88, 0xbe, 0x29, 0x00, 0x24, 0xbd, 0x01, 0xe3, 0x61, 0x3d,
  0x33, 0xd4, 0xdb, 0x3e, 0x7c, 0x73, 0x88, 0xbe, 0x4a, 0x24, 0x42, 0xbe,
  0x69, 0x6e, 0x8f, 0xbe, 0xce, 0x5c, 0x3e, 0xbc, 0x7c, 0xfd, 0x3a, 0xbc,
  0x75, 0x99, 0x4f, 0xbd, 0xa9, 0x72, 0x1a, 0xbd, 0x38, 0xd0, 0x52, 0xbe,
  0xfd, 0xfc, 0x05, 0xbe, 0xec, 0x73, 0x86, 0xbd, 0xe0, 0x00, 0x11, 0x3e,
  0x91, 0x29, 0x35, 0xbe, 0x22, 0xc5, 0x17, 0xbe, 0x4f, 0x69, 0xba, 0xbc,
  0xfe, 0x6f, 0x80, 0xbd, 0xa1, 0xcd, 0xcc, 0x3e, 0x5b, 0x49, 0xc7, 0xbd,
  0x17, 0xb5, 0xd0, 0x3d, 0x5e, 0x33, 0x17, 0x3e, 0x4c, 0x3e, 0x08, 0x3e,
  0x14, 0xd0, 0xed, 0x3d, 0xff, 0x54, 0x0d, 0xbe, 0x1c, 0x0b, 0x90, 0xbd,
  0x0b, 0x49, 0x34, 0xbc, 0x33, 0xaa, 0x6f, 0x3e, 0x09, 0xfa, 0x19, 0xbe,
  0xaf, 0xa8, 0x8e, 0x3d, 0xaa, 0x19, 0x84, 0x3e, 0x06, 0x80, 0x0c, 0xbe,
  0xcb, 0xdf, 0xa8, 0xbc, 0x42, 0xb9, 0x58, 0x3b, 0x17, 0x59, 0x6a, 0x3e,
  0x52, 0x87, 0x11, 0x3d, 0xe2, 0xf1, 0x55, 0xbb, 0x19, 0x55, 0x17, 0x3e,
  0x71, 0xd8, 0xf6, 0x3c, 0x37, 0x9a, 0x4f, 0x3d, 0x03, 0x7f, 0x09, 0x3d,
  0x16, 0x33, 0x9a, 0xbd, 0xbc, 0x85, 0x30, 0x3e, 0xa4, 0x08, 0x25, 0x3e,
  0x03, 0x74, 0x67, 0x3d, 0x7b, 0x60, 0x23, 0xbd, 0x3b, 0xfb, 0x19, 0x3e,
  0x04, 0xe9, 0xa2, 0xbd, 0xfc, 0xd4, 0x42, 0x3b, 0xda, 0x20, 0x27, 0xbc,
  0x65, 0x7e, 0x01, 0xbd, 0x15, 0x93, 0xdd, 0x3d, 0x6e, 0xfb, 0x08, 0x3e,
  0xe0, 0xc7, 0x27, 0x3e, 0x7c, 0x05, 0x11, 0xbd, 0x43, 0x33, 0x37, 0x3e,
  0x0d, 0x53, 0xcb, 0xbc, 0x8a, 0x50, 0x60, 0x3d, 0xb3, 0x85, 0x43, 0x3e,
  0xe0, 0x0e, 0x65, 0x3c, 0xb7, 0xdf, 0x72, 0xbc, 0x76, 0x68, 0x2c, 0x3d,
  0x01, 0x86, 0xa5, 0x3d, 0x6f, 0x88, 0x5c, 0xbe, 0x96, 0x33, 0xa2, 0xbe,
  0x77, 0xa4, 0x1f, 0xbc, 0x68, 0x18, 0x9f, 0xbd, 0xd3, 0xcf, 0xb9, 0xbe,
  0x9e, 0x68, 0xd0, 0xbd, 0xbc, 0x28, 0x83, 0xbe, 0x7c, 0x34, 0xd5, 0x3d,
  0x39, 0xa4, 0x54, 0x3e, 0x47, 0x47, 0xac, 0xbd, 0xae, 0xee, 0xcd, 0x3d,
  0xc0, 0xfb, 0x1e, 0x3d, 0x53, 0xbb, 0xb6, 0x3c, 0x95, 0x05, 0x15, 0xbe,
  0x1a, 0x7f, 0x82, 0x3e, 0x0d, 0x34, 0x5d, 0xbe, 0x47, 0xdc, 0xa3, 0xbd,
  0x74, 0x9f, 0x08, 0x3d, 0xb3, 0x89, 0xc4, 0x3d, 0xc2, 0x5d, 0xb8, 0x3d,
  0x45, 0x16, 0x19, 0xbd, 0x0c, 0x6e, 0x86, 0xbd, 0x04, 0x5c, 0x94, 0x3d,
  0xbb, 0x70, 0x81, 0x3d, 0xd3, 0xf8, 0x10, 0x3e, 0x6d, 0xb7, 0x54, 0x3e,
  0x31, 0xec, 0xb4, 0xbc, 0x95, 0x61, 0xab, 0xbd, 0x19, 0x07, 0x18, 0xbe,
  0xf5, 0x84, 0xb8, 0xbd, 0x98, 0x88, 0xce, 0xbd, 0xa9, 0x4b, 0xd3, 0x3c,
  0xba, 0x43, 0x70, 0x3d, 0x72, 0x8f, 0xd1, 0xbe, 0x9a, 0x4f, 0xc2, 0x38,
  0x11, 0x9e, 0x3e, 0x3e, 0x18, 0x1c, 0x9e, 0xbd, 0x8e, 0xf0, 0x20, 0x3d,
  0xc9, 0xde, 0x18, 0xbd, 0xc4, 0x58, 0xad, 0x3d, 0xfb, 0x74, 0xc2, 0xbc,
  0x59, 0x60, 0x4b, 0x3c, 0xe1, 0xb0, 0xc5, 0x3d, 0x40, 0xca, 0x55, 0x3e,
  0xfa, 0x86, 0x99, 0x3e, 0xef, 0x2e, 0x83, 0xbd, 0xd5, 0xe0, 0xca, 0x3d,
  0x4f, 0x1d, 0xd1, 0x3d, 0x0b, 0x08, 0xfb, 0x3d, 0xbc, 0x48, 0x51, 0xbd,
  0x4a, 0xf9, 0xf3, 0x3c, 0xd3, 0x61, 0xc2, 0x3d, 0xd9, 0xff, 0xaa, 0xbc,
  0xd9, 0x90, 0x52, 0xbd, 0x7c, 0xe0, 0xc0, 0xbc, 0xa8, 0x67, 0x38, 0xbe,
  0x15, 0xc0, 0xa4, 0x3e, 0x15, 0x31, 0x12, 0xbd, 0x65, 0xea, 0x25, 0x3e,
  0x9d, 0xf6, 0x30, 0xbd, 0x5f, 0x7b, 0x43, 0x3e, 0xd0, 0x12, 0x19, 0xbd,
  0x3e, 0xf9, 0x36, 0xbb, 0xf2, 0x50, 0x2c, 0xbe, 0x91, 0x2c, 0x71, 0x3e,
  0xb6, 0x48, 0x17, 0xbc, 0x78, 0x70, 0x7d, 0xbd, 0x82, 0xe4, 0x90, 0x3e,
  0x35, 0xb8, 0x54, 0xbe, 0x5d, 0x7f, 0x0f, 0xbe, 0x5e, 0x9c, 0xb8, 0xbd,
  0x97, 0x37, 0x49, 0x3d, 0x05, 0xe0, 0xb7, 0xbc, 0x44, 0x89, 0x5b, 0xbe,
  0x4e, 0xb9, 0xb1, 0xbd, 0x93, 0xd0, 0x10, 0x3e, 0xb0, 0xbb, 0x41, 0x3e,
  0x18, 0xa5, 0xbf, 0xbd, 0x23, 0xf8, 0xdc, 0x3d, 0xd0, 0xaa, 0xc0, 0xbd,
  0xfd, 0x09, 0x4a, 0xbe, 0x5f, 0x6f, 0xe0, 0xbd, 0x85, 0xb4, 0xaf, 0x3d,
  0x2e, 0xc7, 0xb9, 0xbd, 0x12, 0xe5, 0x54, 0xbe, 0x4a, 0x01, 0x92, 0xbe,
  0xd6, 0x82, 0x52, 0xbe, 0x8e, 0xd3, 0x2d, 0xbe, 0xe5, 0xe0, 0x47, 0x3d,
  0x64, 0x5b, 0x91, 0x3d, 0x55, 0xd2, 0x5c, 0x3d, 0x68, 0xec, 0x53, 0xbc,
  0x96, 0x30, 0x56, 0x3e, 0x9e, 0xfa, 0x09, 0x3e, 0x61, 0x39, 0x01, 0x3e,
  0xc0, 0x32, 0x8b, 0xbd, 0x7f, 0xdd, 0xe2, 0x3d, 0x8d, 0x21, 0xd4, 0xbd,
  0xa5, 0x89, 0x29, 0xbe, 0x46, 0xdc, 0x7b, 0xbe, 0x4b, 0x27, 0x52, 0xbe,
  0xe6, 0x90, 0x7d, 0xbe, 0x6c, 0x2a, 0x17, 0x3e, 0x9c, 0x3f, 0xad, 0xbd,
  0x0f, 0x3d, 0x38, 0x3e, 0x6a, 0x7d, 0xc6, 0x3b, 0x55, 0x6c, 0x44, 0x3d,
  0x2c, 0x7c, 0x4b, 0xbe, 0x88, 0xc9, 0x8c, 0xbd, 0xd0, 0xe7, 0x91, 0xbe,
  0x0e, 0x26, 0x4f, 0x3b, 0x59, 0x9e, 0x21, 0x3c, 0xa4, 0x73, 0x78, 0x3d,
  0xd2, 0xaa, 0x71, 0xbd, 0xc0, 0x4c, 0x75, 0x3d, 0xd0, 0x72, 0x31, 0xbe,
  0x8d, 0x15, 0xe6, 0xbd, 0xc0, 0xe3, 0x77, 0x3e, 0xdb, 0x3e, 0x56, 0xbe,
  0x40, 0xc3, 0x33, 0xbe, 0x65, 0x4a, 0x39, 0x3e, 0xff, 0xf3, 0xd1, 0xbb,
  0x4c, 0x26, 0xd3, 0xbd, 0x4f, 0x4d, 0x47, 0xbd, 0x3a, 0xae, 0x43, 0xbd,
  0x04, 0xef, 0x14, 0xbe, 0xa8, 0x3e, 0x21, 0x3d, 0x32, 0x2a, 0x6a, 0x3d,
  0x65, 0xf2, 0x87, 0xbd, 0xa8, 0x95, 0xa0, 0x3c, 0x27, 0x08, 0x46, 0x3d,
  0x2a, 0xea, 0x0d, 0x3d, 0xeb, 0xbb, 0x3a, 0xbe, 0xc2, 0x45, 0xb4, 0xbd,
  0x6c, 0xcd, 0x46, 0xbd, 0x6f, 0x6d, 0x23, 0xbe, 0x50, 0x17, 0xe3, 0xbd,
  0xa1, 0x09, 0xb9, 0x3d, 0x06, 0x60, 0x04, 0xbe, 0x43, 0xdf, 0xa8, 0xbc,
  0x07, 0xf5, 0x4e, 0xbe, 0xa4, 0xfb, 0x56, 0xbd, 0x96, 0x7d, 0x34, 0xbe,
  0xa7, 0x22, 0x2b, 0x3d, 0x93, 0xb0, 0xa5, 0xbb, 0xcd, 0x70, 0x11, 0xbe,
  0xff, 0x1b, 0xbe, 0x3c, 0xfc, 0xf7, 0xbc, 0x3d, 0x32, 0x1a, 0xca, 0xbd,
  0x75, 0x49, 0x02, 0x3e, 0xfb, 0x84, 0x46, 0xbe, 0x31, 0x4d, 0xe3, 0x3b,
  0xc1, 0xa8, 0xf2, 0xbd, 0x02, 0xdd, 0x59, 0xbd, 0x33, 0xdd, 0x3b, 0xbd,
  0x51, 0x8b, 0x45, 0xbb, 0xc6, 0x49, 0xb6, 0x3d, 0x22, 0x69, 0x77, 0xbe,
  0xc4, 0x1f, 0x5f, 0xbe, 0xd5, 0x77, 0xfb, 0xbd, 0x97, 0x54, 0x92, 0x3d,
  0x45, 0x94, 0x29, 0xbe, 0xa1, 0x84, 0xee, 0x3d, 0x9f, 0x96, 0xac, 0x3d,
  0x1e, 0xa7, 0x1c, 0x3d, 0xc6, 0x19, 0xba, 0xbd, 0x81, 0xef, 0x20, 0x3d,
  0xfc, 0x12, 0x1e, 0xbe, 0x22, 0x4b, 0x75, 0x3e, 0xc5, 0xad, 0x41, 0xbe,
  0xaf, 0x23, 0xa6, 0xbd, 0x0f, 0x64, 0x87, 0x3d, 0x27, 0xf2, 0x16, 0x3e,
  0xd7, 0x22, 0x32, 0xbe, 0xca, 0x26, 0x11, 0xbd, 0x2c, 0x64, 0x06, 0x3e,
  0x90, 0x85, 0x46, 0x3d, 0x15, 0xb5, 0x92, 0xbe, 0xb7, 0x27, 0x96, 0x3c,
  0x98, 0x40, 0x6f, 0xbe, 0x44, 0x4f, 0x86, 0xbe, 0x75, 0xd3, 0xd6, 0x3d,
  0x33, 0xd7, 0x15, 0xbd, 0x5f, 0xb5, 0xe2, 0x3d, 0xe6, 0xf9, 0xa8, 0xbd,
  0xf1, 0xcd, 0x81, 0xbe, 0xbb, 0x69, 0x86, 0x3a, 0x5e, 0xc2, 0x9b, 0xbe,
  0xcb, 0x9f, 0x2f, 0x3d, 0xd8, 0x49, 0x4c, 0xbd, 0x8b, 0x62, 0xa3, 0xbd,
  0x14, 0x10, 0xb6, 0x3d, 0x4a, 0xc5, 0xd0, 0x3d, 0x7f, 0xa5, 0x30, 0xbc,
  0x15, 0x0b, 0x87, 0xbe, 0xa0, 0x47, 0x6e, 0xbe, 0x58, 0x6c, 0x85, 0xbe,
  0xd5, 0x7e, 0x13, 0xbd, 0xb2, 0x21, 0x4b, 0xbe, 0x90, 0x69, 0x6d, 0xbe,
  0xec, 0x36, 0x99, 0x3c, 0x76, 0x51, 0x13, 0x3e, 0xe2, 0xe1, 0x48, 0x3b,
  0xf4, 0xeb, 0x23, 0xbe, 0xf8, 0xa0, 0xaf, 0x3d, 0xc7, 0xff, 0x25, 0x3e,
  0x26, 0x66, 0x96, 0x3d, 0x0d, 0xdc, 0x50, 0xbd, 0x40, 0xe8, 0x84, 0xbc,
  0x32, 0xbd, 0x9f, 0x3c, 0x8a, 0xcc, 0x27, 0xbe, 0xd1, 0xa9, 0x51, 0xbe,
  0x6a, 0x8e, 0x0c, 0xbd, 0xcf, 0x44, 0x25, 0xbc, 0x36, 0x70, 0x7a, 0xbe,
  0xc8, 0x5a, 0xc3, 0xba, 0x5e, 0xda, 0x1c, 0x3e, 0xbe, 0x8d, 0x36, 0x3d,
  0xec, 0x58, 0x1e, 0xbe, 0x6a, 0xbc, 0x7b, 0xbe, 0x36, 0x02, 0x6a, 0xb9,
  0x52, 0x86, 0x5f, 0xbe, 0x54, 0x62, 0x36, 0xbe, 0xc8, 0xfb, 0x94, 0xbd,
  0xc7, 0x09, 0x4c, 0xbe, 0x3c, 0x76, 0x75, 0xbd, 0x27, 0x46, 0x3c, 0xbe,
  0xe7, 0x36, 0x6f, 0xbe, 0xbc, 0xab, 0x32, 0xbe, 0x0c, 0xd0, 0x66, 0xbd,
  0x8e, 0x01, 0xbc, 0xbd, 0xd4, 0xc6, 0xd4, 0xbd, 0xe7, 0x58, 0x6a, 0x3e,
  0x0d, 0xca, 0x24, 0xbe, 0xd0, 0xb5, 0xc9, 0x3d, 0x86, 0x51, 0xfb, 0xbc,
  0xd8, 0x40, 0x3f, 0xbc, 0xaa, 0x48, 0x2b, 0x3d, 0xad, 0x34, 0x12, 0xbe,
  0x98, 0x10, 0xae, 0xbd, 0x44, 0xfe, 0xe9, 0xbc, 0x22, 0xd9, 0x63, 0x3d,
  0x98, 0xad, 0xa6, 0x3c, 0xb4, 0xf4, 0x16, 0xbd, 0xcd, 0xbc, 0x7d, 0xbe,
  0xbb, 0x90, 0x1d, 0xbe, 0x53, 0x33, 0x89, 0x3d, 0x7e, 0x27, 0x5a, 0xbe,
  0x5c, 0x5d, 0x2a, 0xbe, 0xc4, 0x22, 0x21, 0x3d, 0x6a, 0xcc, 0x69, 0xbe,
  0x6f, 0x1f, 0x79, 0xbe, 0x28, 0x32, 0x8f, 0x3d, 0xe3, 0x36, 0xdc, 0x3c,
  0x6b, 0xd0, 0xb9, 0xbd, 0x16, 0x17, 0x87, 0xbd, 0xf3, 0xd6, 0x65, 0x3c,
  0xb3, 0x80, 0x58, 0xbd, 0x42, 0xf4, 0x8a, 0x3e, 0x4f, 0xe8, 0x74, 0xbe,
  0x06, 0xef, 0x09, 0xbd, 0x85, 0xfb, 0x3f, 0x3d, 0xb2, 0x67, 0x90, 0x3c,
  0x2d, 0x50, 0x3a, 0xbe, 0xfb, 0x43, 0xf3, 0xbd, 0x82, 0x14, 0x53, 0xbb,
  0x3f, 0xd2, 0xad, 0xbe, 0x2a, 0xdb, 0xb4, 0xbc, 0xe9, 0xe6, 0x2c, 0x3e,
  0x69, 0xd2, 0x13, 0x3e, 0x55, 0xd8, 0xb7, 0xbd, 0x8a, 0x5e, 0x15, 0xbc,
  0xd6, 0x02, 0xa8, 0x3d, 0x93, 0x25, 0xf0, 0x3d, 0x6f, 0x5f, 0x5b, 0x3b,
  0x76, 0x88, 0x81, 0xbc, 0x83, 0xb6, 0x48, 0xbe, 0xde, 0x04, 0xaf, 0x3d,
  0x62, 0x6e, 0x85, 0xbe, 0xc0, 0xbf, 0xf4, 0x3d, 0x2e, 0x08, 0x31, 0xbe,
  0x74, 0xac, 0xd4, 0xbd, 0x85, 0xe4, 0xb1, 0xbe, 0x64, 0x67, 0xfa, 0xbd,
  0x35, 0xe7, 0x1d, 0x3e, 0x64, 0xec, 0x5a, 0x3e, 0xe2, 0xcf, 0x63, 0x3c,
  0x33, 0x7b, 0xd3, 0x3c, 0x2d, 0x5d, 0x5f, 0x3b, 0xac, 0xc2, 0x92, 0xbc,
  0x24, 0x2a, 0xb2, 0x3d, 0xca, 0x0c, 0xf0, 0xbc, 0x0c, 0xf6, 0x82, 0xbb,
  0xf6, 0x5b, 0x80, 0xbd, 0x28, 0x61, 0x21, 0xbd, 0x10, 0xc0, 0x05, 0xbd,
  0xd3, 0xb9, 0x00, 0xbe, 0x19, 0x33, 0x46, 0xbe, 0xbe, 0xc6, 0x27, 0xbe,
  0x19, 0x15, 0xd4, 0xbb, 0x3b, 0xd9, 0x25, 0x3e, 0x02, 0x8d, 0x13, 0x3e,
  0x3c, 0x5d, 0x57, 0xbe, 0xc0, 0x31, 0xc3, 0x3d, 0x16, 0x01, 0x61, 0x3e,
  0xfb, 0x5e, 0x4f, 0xbd, 0xa1, 0xa2, 0xa4, 0x3d, 0x7d, 0x31, 0xdd, 0xbd,
  0x35, 0x82, 0x39, 0xbe, 0x23, 0x0a, 0x19, 0xbd, 0x18, 0x07, 0x4a, 0xbe,
  0x2e, 0xb4, 0xab, 0xbe, 0x65, 0xd8, 0x6b, 0x3e, 0x2c, 0x24, 0x18, 0xbe,
  0x7a, 0xfc, 0x9f, 0xbe, 0xf3, 0x6f, 0x9f, 0xbd, 0xdd, 0x17, 0xe6, 0xbd,
  0x37, 0x73, 0x42, 0x3e, 0xfb, 0xca, 0x94, 0xbd, 0x13, 0x47, 0x21, 0xbe,
  0xa1, 0x5c, 0x3f, 0x3e, 0x6a, 0xf2, 0x68, 0xbd, 0x9c, 0x4e, 0xc7, 0x3c,
  0xae, 0xc2, 0x9c, 0xbe, 0x82, 0xba, 0x69, 0xbe, 0x47, 0x0a, 0x3b, 0x3e,
  0x74, 0x1c, 0xbf, 0xbd, 0x54, 0xf4, 0xaa, 0xbd, 0x58, 0xcf, 0xfd, 0xbd,
  0x28, 0x87, 0xda, 0x3c, 0xab, 0xb9, 0x2c, 0xbe, 0xb8, 0xa6, 0x69, 0xbd,
  0x45, 0x89, 0x96, 0x3d, 0xdd, 0x26, 0x49, 0x3e, 0xea, 0xf9, 0x02, 0xbd,
  0x5d, 0xb7, 0xc0, 0xbd, 0x60, 0x9b, 0x96, 0x3e, 0xf5, 0xe0, 0xe3, 0xbb,
  0x93, 0x58, 0x8f, 0x3d, 0x58, 0xe9, 0x0a, 0xbe, 0x8c, 0x4a, 0x8f, 0xbd,
  0x35, 0x06, 0x3b, 0x3e, 0x60, 0x47, 0x93, 0xbd, 0x1e, 0xce, 0x73, 0xbe,
  0xf9, 0x27, 0x9e, 0xbc, 0x8f, 0x5f, 0xd7, 0xbd, 0x75, 0x26, 0x5c, 0x3d,
  0x48, 0xda, 0x13, 0xbe, 0x42, 0x7a, 0xa7, 0xbe, 0x33, 0x39, 0xd8, 0x3e,
  0xb1, 0x33, 0x72, 0x3e, 0xd9, 0x98, 0xbb, 0xbe, 0x07, 0xe6, 0x8b, 0x3e,
  0x00, 0xb0, 0x4e, 0xbc, 0xff, 0xa1, 0x90, 0xbc, 0x0f, 0x6d, 0x35, 0xbd,
  0xd0, 0x2b, 0x89, 0x3d, 0x55, 0x7c, 0x8f, 0x3d, 0x2c, 0xb4, 0x71, 0x3e,
  0x4f, 0xe9, 0xe2, 0xbb, 0xf4, 0xef, 0x36, 0xbd, 0x42, 0xa2, 0x7e, 0xbc,
  0x46, 0x57, 0x3f, 0xbc, 0x8d, 0x9f, 0x4d, 0x3d, 0x2d, 0x66, 0xae, 0xbe,
  0x8c, 0x21, 0x72, 0x3e, 0x06, 0xf8, 0x50, 0x3d, 0x22, 0xfa, 0xad, 0xbd,
  0xc8, 0x9b, 0x30, 0x3d, 0xa0, 0xeb, 0x4e, 0x3c, 0x17, 0x18, 0xa6, 0xbd,
  0xfe, 0x26, 0x59, 0xbe, 0x32, 0x02, 0x2f, 0x3d, 0xcb, 0x28, 0xd9, 0x3e,
  0x39, 0xc0, 0x1f, 0x3f, 0x02, 0x50, 0x86, 0xbe, 0x4e, 0x4b, 0x4a, 0x3d,
  0x0f, 0xa3, 0x5b, 0x3e, 0xda, 0x14, 0x55, 0x3b, 0xad, 0xdf, 0x4d, 0x3e,
  0x7b, 0xc3, 0x48, 0xbe, 0x3b, 0x2d, 0xe6, 0x3d, 0xbc, 0x66, 0xd3, 0xbd,
  0x7a, 0x55, 0x0b, 0x3d, 0x7c, 0xc8, 0x26, 0xbd, 0xfe, 0x2f, 0x4f, 0x3c,
  0xf0, 0x5e, 0xf8, 0x3d, 0xb3, 0x7a, 0x43, 0xbd, 0xec, 0x4f, 0x1b, 0x3d,
  0xce, 0xec, 0x35, 0x3e, 0xae, 0xee, 0x10, 0x3f, 0x87, 0xe2, 0x1b, 0xbe,
  0x38, 0x4b, 0x46, 0xbc, 0x07, 0xff, 0x27, 0x3e, 0x64, 0x5f, 0xad, 0x3c,
  0x89, 0x41, 0xfa, 0x3d, 0x9a, 0x02, 0x83, 0xbe, 0x7a, 0x34, 0x9c, 0x3e,
  0x61, 0x8d, 0x01, 0x3d, 0x02, 0xf9, 0x8f, 0xba, 0x24, 0x08, 0x0e, 0x3d,
  0x97, 0xc6, 0x00, 0x3c, 0x3b, 0x67, 0x05, 0x3e, 0x77, 0x06, 0x14, 0xbe,
  0xc1, 0xaf, 0xaf, 0x3c, 0x98, 0xd6, 0x87, 0x3e, 0x58, 0x2f, 0xf6, 0x3d,
  0xbb, 0xc2, 0x84, 0xbe, 0x8f, 0x15, 0x7b, 0x3d, 0xb5, 0xad, 0xb3, 0xbb,
  0xed, 0x00, 0x51, 0x3c, 0xe5, 0x78, 0x27, 0xbe, 0xcf, 0x11, 0x36, 0xbe,
  0x59, 0xbe, 0x43, 0x3f, 0xa9, 0xee, 0x0d, 0x3d, 0x84, 0x26, 0x08, 0xbe,
  0x4c, 0xa5, 0x23, 0x3b, 0x23, 0x0e, 0x1c, 0x3c, 0xf5, 0xfc, 0x9f, 0x3d,
  0x15, 0x70, 0x37, 0xbe, 0x16, 0x4f, 0x30, 0xbd, 0xbf, 0x1e, 0xd2, 0x3e,
  0xfc, 0x33, 0xcc, 0x3c, 0x48, 0xf7, 0x76, 0xbe, 0xc2, 0x67, 0xd9, 0x3d,
  0x5b, 0xc5, 0x65, 0xbd, 0x78, 0xa2, 0xb4, 0x3c, 0x29, 0x86, 0x4f, 0xbe,
  0xea, 0x9a, 0xc3, 0xbe, 0x68, 0x8e, 0x82, 0x3e, 0x7b, 0xac, 0x5f, 0xbd,
  0x67, 0x78, 0x80, 0xbe, 0xed, 0x92, 0x1a, 0x3e, 0x34, 0x30, 0x0f, 0xbb,
  0x38, 0xe6, 0x2d, 0x3c, 0xfa, 0x23, 0x49, 0xbd, 0x70, 0x06, 0x87, 0xbd,
  0x12, 0xd3, 0x80, 0x3d, 0xee, 0xf6, 0x33, 0xbd, 0xf0, 0x67, 0xfa, 0xbd,
  0x44, 0x88, 0xda, 0x3d, 0xe4, 0x6b, 0x2c, 0xbc, 0x0e, 0xb7, 0xc1, 0xbc,
  0x81, 0x9d, 0x18, 0xbe, 0x22, 0xa6, 0x83, 0xbd, 0x50, 0xe4, 0x13, 0x3d,
  0x75, 0xd0, 0x55, 0x3d, 0xab, 0x87, 0xce, 0xbd, 0x8f, 0xac, 0xa2, 0x3c,
  0xd2, 0xf1, 0xc9, 0xbd, 0xcf, 0x87, 0xcb, 0x3d, 0xfb, 0x0a, 0xc6, 0x3d,
  0x8e, 0xb7, 0x72, 0xbc, 0x63, 0xfd, 0x04, 0x3e, 0x08, 0x7f, 0x7e, 0xbe,
  0x16, 0x48, 0x9d, 0xbd, 0x89, 0xdf, 0x83, 0xbd, 0xae, 0x0e, 0x2b, 0xbd,
  0xfb, 0xe6, 0x16, 0x3e, 0x5b, 0x76, 0x76, 0xbe, 0x1a, 0xec, 0x4e, 0xbd,
  0x52, 0x5b, 0x8f, 0x3e, 0x00, 0xb1, 0x4c, 0x3d, 0x47, 0xf0, 0xdd, 0xbd,
  0xec, 0x70, 0x6f, 0x3e, 0x8e, 0xc6, 0x40, 0x3d, 0x3a, 0xcd, 0xd2, 0x3d,
  0x2d, 0x17, 0x01, 0x3c, 0xc1, 0x51, 0x84, 0xbd, 0x93, 0x8e, 0x5e, 0xbd,
  0xb0, 0x5a, 0xf2, 0x3d, 0xc2, 0x88, 0x4f, 0x3e, 0x66, 0x91, 0x76, 0xbe,
  0xc5, 0xba, 0x40, 0x3c, 0x5c, 0xaf, 0xf8, 0xbc, 0xc0, 0x62, 0x94, 0xbe,
  0x1f, 0xff, 0x97, 0x3d, 0x57, 0x5d, 0x79, 0x3d, 0xe4, 0x6c, 0xcc, 0xbd,
  0xe1, 0x3c, 0x51, 0xbd, 0x76, 0x4b, 0x63, 0x3e, 0x80, 0x7c, 0xa9, 0xbd,
  0xf8, 0x89, 0x79, 0xbe, 0xed, 0x1d, 0xa9, 0x3d, 0xf0, 0x25, 0xb1, 0x3b,
  0x6f, 0xc1, 0xb0, 0xbc, 0xb4, 0xed, 0x99, 0x3e, 0xf8, 0xd3, 0x4f, 0xbe,
  0x2f, 0xee, 0x3a, 0x3b, 0xb7, 0x9d, 0x32, 0x3e, 0xb9, 0xb7, 0xb2, 0xbd,
  0xee, 0x7e, 0x10, 0xbe, 0x25, 0xe2, 0x45, 0x3e, 0x28, 0xc1, 0x66, 0x3d,
  0xac, 0xe1, 0xca, 0x3d, 0x35, 0xfa, 0xd9, 0xbd, 0xfb, 0xfc, 0x28, 0xbd,
  0xd6, 0x9e, 0x74, 0x3d, 0xbd, 0xd4, 0x02, 0xbe, 0xce, 0x53, 0x96, 0x3d,
  0xbb, 0xcd, 0xe2, 0x3c, 0x23, 0xe0, 0x38, 0xbe, 0x3d, 0xb9, 0x20, 0x3e,
  0x7e, 0xc1, 0x19, 0x3c, 0x23, 0xe2, 0x9d, 0x3d, 0x25, 0xee, 0x1a, 0x3e,
  0xaf, 0xd2, 0x3a, 0xbe, 0x60, 0x49, 0x7b, 0xbe, 0x64, 0xb8, 0xc3, 0xbd,
  0x8f, 0x58, 0x36, 0xbe, 0x5d, 0xf6, 0x87, 0x3d, 0x9e, 0xa7, 0x36, 0xbe,
  0xe5, 0x10, 0x50, 0xbc, 0x42, 0xd5, 0x07, 0xbc, 0xda, 0x1a, 0xa5, 0xbc,
  0x59, 0x56, 0x3b, 0xbd, 0xc4, 0xec, 0x05, 0xbe, 0x7b, 0x7b, 0x22, 0x3e,
  0xdc, 0xdf, 0x06, 0x3e, 0xa9, 0x7e, 0x19, 0xbe, 0xb7, 0x98, 0xd8, 0xbc,
  0x30, 0x6f, 0x0f, 0xbd, 0x8b, 0xa9, 0x9e, 0x3d, 0xdd, 0x5f, 0xaa, 0xbe,
  0x77, 0xbe, 0x26, 0xbd, 0x43, 0x13, 0x91, 0x3d, 0x1e, 0x22, 0x88, 0x3c,
  0x35, 0x6d, 0xde, 0x3b, 0xb4, 0xb4, 0x76, 0xbe, 0x9e, 0x37, 0x91, 0xbd,
  0xae, 0x20, 0xeb, 0xbc, 0xde, 0x64, 0x9d, 0x3c, 0x0c, 0xf1, 0xf3, 0xbd,
  0xa2, 0x65, 0xc8, 0x3d, 0xb3, 0x85, 0xc9, 0xbd, 0x1b, 0xed, 0x04, 0xbd,
  0x52, 0x71, 0xbc, 0xbd, 0xb4, 0x11, 0x11, 0xbe, 0x27, 0x6b, 0x3d, 0xbc,
  0x32, 0xc6, 0x6b, 0xbe, 0x1e, 0x4c, 0xf3, 0xbd, 0xa1, 0x86, 0x08, 0x3e,
  0x54, 0xff, 0xdc, 0xbd, 0xba, 0x88, 0x6e, 0xbd, 0x15, 0x3e, 0x26, 0xbe,
  0x57, 0x4b, 0x4f, 0xbd, 0x76, 0x86, 0xa9, 0xbd, 0xab, 0x46, 0xd6, 0x3d,
  0x04, 0x92, 0xf9, 0xbd, 0x76, 0x96, 0x29, 0xbe, 0xe4, 0xe8, 0xef, 0x3d,
  0xf6, 0x7a, 0x5e, 0xbe, 0x01, 0xd0, 0x9d, 0x3d, 0x29, 0x3d, 0x9e, 0xbc,
  0x52, 0xd6, 0xf7, 0xbd, 0xda, 0x57, 0x9f, 0xbe, 0x71, 0xc5, 0x67, 0xbd,
  0xcc, 0x75, 0x17, 0xbe, 0xd5, 0xf6, 0x15, 0xbe, 0xf5, 0x3c, 0x3d, 0xbe,
  0xb5, 0x81, 0x18, 0xbe, 0x62, 0xfd, 0xff, 0xff, 0x10, 0x00, 0x00, 0x00,
  0x07, 0x00, 0x00, 0x00, 0x14, 0x00, 0x00, 0x00, 0x2c, 0x00, 0x00, 0x00,
  0x02, 0x00, 0x00, 0x00, 0x10, 0x00, 0x00, 0x00, 0x70, 0x00, 0x00, 0x00,
  0x17, 0x00, 0x00, 0x00, 0x73, 0x65, 0x71, 0x75, 0x65, 0x6e, 0x74, 0x69,
  0x61, 0x6c, 0x2f, 0x64, 0x65, 0x6e, 0x73, 0x65, 0x2f, 0x4d, 0x61, 0x74,
  0x4d, 0x75, 0x6c, 0x00, 0xcc, 0xfc, 0xff, 0xff, 0xd6, 0xfd, 0xff, 0xff,
  0x04, 0x00, 0x00, 0x00, 0x08, 0x00, 0x00, 0x00, 0xff, 0xff, 0xff, 0xff,
  0x70, 0x00, 0x00, 0x00, 0x00, 0x00, 0x0e, 0x00, 0x18, 0x00, 0x08, 0x00,
  0x07, 0x00, 0x0c, 0x00, 0x10, 0x00, 0x14, 0x00, 0x0e, 0x00, 0x00, 0x00,
  0x00, 0x00, 0x00, 0x02, 0x10, 0x00, 0x00, 0x00, 0x06, 0x00, 0x00, 0x00,
  0x10, 0x00, 0x00, 0x00, 0x2c, 0x00, 0x00, 0x00, 0x01, 0x00, 0x00, 0x00,
  0x02, 0x00, 0x00, 0x00, 0x18, 0x00, 0x00, 0x00, 0x73, 0x65, 0x71, 0x75,
  0x65, 0x6e, 0x74, 0x69, 0x61, 0x6c, 0x2f, 0x66, 0x6c, 0x61, 0x74, 0x74,
  0x65, 0x6e, 0x2f, 0x43, 0x6f, 0x6e, 0x73, 0x74, 0x00, 0x00, 0x00, 0x00,
  0x34, 0xfd, 0xff, 0xff, 0x3e, 0xfe, 0xff, 0xff, 0x04, 0x00, 0x00, 0x00,
  0x10, 0x00, 0x00, 0x00, 0xb7, 0x7a, 0xeb, 0xbf, 0x01, 0x20, 0x9f, 0x3f,
  0x2c, 0x95, 0x4e, 0xc0, 0xb5, 0x4a, 0x2e, 0x3f, 0x26, 0xfe, 0xff, 0xff,
  0x10, 0x00, 0x00, 0x00, 0x05, 0x00, 0x00, 0x00, 0x10, 0x00, 0x00, 0x00,
  0x44, 0x00, 0x00, 0x00, 0x01, 0x00, 0x00, 0x00, 0x04, 0x00, 0x00, 0x00,
  0x32, 0x00, 0x00, 0x00, 0x73, 0x65, 0x71, 0x75, 0x65, 0x6e, 0x74, 0x69,
  0x61, 0x6c, 0x2f, 0x64, 0x65, 0x6e, 0x73, 0x65, 0x5f, 0x31, 0x2f, 0x42,
  0x69, 0x61, 0x73, 0x41, 0x64, 0x64, 0x2f, 0x52, 0x65, 0x61, 0x64, 0x56,
  0x61, 0x72, 0x69, 0x61, 0x62, 0x6c, 0x65, 0x4f, 0x70, 0x2f, 0x72, 0x65,
  0x73, 0x6f, 0x75, 0x72, 0x63, 0x65, 0x00, 0x00, 0xa8, 0xfd, 0xff, 0xff,
  0xb2, 0xfe, 0xff, 0xff, 0x04, 0x00, 0x00, 0x00, 0x40, 0x00, 0x00, 0x00,
  0xd4, 0x5b, 0xa2, 0x3e, 0x0e, 0xe4, 0xd2, 0x3e, 0x38, 0xd0, 0x63, 0x3d,
  0x5e, 0x2e, 0x66, 0xbf, 0x4a, 0x7a, 0xdb, 0x3a, 0x64, 0x32, 0xbb, 0x3f,
  0x15, 0x7f, 0xd0, 0xbf, 0x40, 0xff, 0xac, 0x40, 0xc4, 0x1d, 0xca, 0xbe,
  0xe1, 0xfe, 0xc3, 0xbe, 0x12, 0x35, 0x29, 0xc0, 0xe7, 0xfe, 0x79, 0xbd,
  0x66, 0xfa, 0xb5, 0xbe, 0x4f, 0x91, 0xb9, 0x3f, 0x89, 0x67, 0xc6, 0x40,
  0x31, 0xbe, 0x88, 0xbe, 0xca, 0xfe, 0xff, 0xff, 0x10, 0x00, 0x00, 0x00,
  0x04, 0x00, 0x00, 0x00, 0x10, 0x00, 0x00, 0x00, 0x44, 0x00, 0x00, 0x00,
  0x01, 0x00, 0x00, 0x00, 0x10, 0x00, 0x00, 0x00, 0x30, 0x00, 0x00, 0x00,
  0x73, 0x65, 0x71, 0x75, 0x65, 0x6e, 0x74, 0x69, 0x61, 0x6c, 0x2f, 0x64,
  0x65, 0x6e, 0x73, 0x65, 0x2f, 0x42, 0x69, 0x61, 0x73, 0x41, 0x64, 0x64,
  0x2f, 0x52, 0x65, 0x61, 0x64, 0x56, 0x61, 0x72, 0x69, 0x61, 0x62, 0x6c,
  0x65, 0x4f, 0x70, 0x2f, 0x72, 0x65, 0x73, 0x6f, 0x75, 0x72, 0x63, 0x65,
  0x00, 0x00, 0x00, 0x00, 0x4c, 0xfe, 0xff, 0xff, 0x56, 0xff, 0xff, 0xff,
  0x04, 0x00, 0x00, 0x00, 0x40, 0x00, 0x00, 0x00, 0x70, 0xd2, 0x38, 0xbc,
  0xcf, 0xf5, 0x83, 0xbf, 0xed, 0x61, 0x06, 0xbf, 0xf4, 0xae, 0xab, 0x3e,
  0xe5, 0xd4, 0x67, 0xbf, 0x30, 0xec, 0xf5, 0xbf, 0xfc, 0xcc, 0x6e, 0xbf,
  0xf3, 0x8c, 0x4f, 0xbb, 0xa1, 0x06, 0x8f, 0xbf, 0xcd, 0xea, 0x86, 0x3f,
  0xa6, 0x04, 0x09, 0xbd, 0x57, 0x3a, 0x6a, 0xbf, 0x14, 0x2a, 0xb1, 0xbd,
  0x77, 0x36, 0x05, 0xbf, 0xac, 0xa8, 0x24, 0xc0, 0x60, 0xb2, 0x83, 0xbc,
  0x6e, 0xff, 0xff, 0xff, 0x10, 0x00, 0x00, 0x00, 0x03, 0x00, 0x00, 0x00,
  0x10, 0x00, 0x00, 0x00, 0x48, 0x00, 0x00, 0x00, 0x01, 0x00, 0x00, 0x00,
  0x10, 0x00, 0x00, 0x00, 0x33, 0x00, 0x00, 0x00, 0x73, 0x65, 0x71, 0x75,
  0x65, 0x6e, 0x74, 0x69, 0x61, 0x6c, 0x2f, 0x63, 0x6f, 0x6e, 0x76, 0x32,
  0x64, 0x5f, 0x31, 0x2f, 0x42, 0x69, 0x61, 0x73, 0x41, 0x64, 0x64, 0x2f,
  0x52, 0x65, 0x61, 0x64, 0x56, 0x61, 0x72, 0x69, 0x61, 0x62, 0x6c, 0x65,
  0x4f, 0x70, 0x2f, 0x72, 0x65, 0x73, 0x6f, 0x75, 0x72, 0x63, 0x65, 0x00,
  0x04, 0x00, 0x06, 0x00, 0x04, 0x00, 0x00, 0x00, 0x00, 0x00, 0x06, 0x00,
  0x08, 0x00, 0x04, 0x00, 0x06, 0x00, 0x00, 0x00, 0x04, 0x00, 0x00, 0x00,
  0x20, 0x00, 0x00, 0x00, 0x5b, 0x4d, 0x00, 0xc0, 0xa8, 0x07, 0xc6, 0xbf,
  0x2b, 0x57, 0xa9, 0xbf, 0xf8, 0xc8, 0xe4, 0xbf, 0x66, 0x04, 0x9e, 0xbf,
  0x65, 0x88, 0xf2, 0xbf, 0x39, 0xf6, 0x04, 0xbf, 0x6e, 0xf6, 0x29, 0xbf,
  0x00, 0x00, 0x0e, 0x00, 0x14, 0x00, 0x04, 0x00, 0x00, 0x00, 0x08, 0x00,
  0x0c, 0x00, 0x10, 0x00, 0x0e, 0x00, 0x00, 0x00, 0x10, 0x00, 0x00, 0x00,
  0x02, 0x00, 0x00, 0x00, 0x10, 0x00, 0x00, 0x00, 0x44, 0x00, 0x00, 0x00,
  0x01, 0x00, 0x00, 0x00, 0x08, 0x00, 0x00, 0x00, 0x31, 0x00, 0x00, 0x00,
  0x73, 0x65, 0x71, 0x75, 0x65, 0x6e, 0x74, 0x69, 0x61, 0x6c, 0x2f, 0x63,
  0x6f, 0x6e, 0x76, 0x32, 0x64, 0x2f, 0x42, 0x69, 0x61, 0x73, 0x41, 0x64,
  0x64, 0x2f, 0x52, 0x65, 0x61, 0x64, 0x56, 0x61, 0x72, 0x69, 0x61, 0x62,
  0x6c, 0x65, 0x4f, 0x70, 0x2f, 0x72, 0x65, 0x73, 0x6f, 0x75, 0x72, 0x63,
  0x65, 0x00, 0x00, 0x00, 0x90, 0xff, 0xff, 0xff, 0x14, 0x00, 0x18, 0x00,
  0x04, 0x00, 0x00, 0x00, 0x08, 0x00, 0x0c, 0x00, 0x10, 0x00, 0x00, 0x00,
  0x00, 0x00, 0x14, 0x00, 0x14, 0x00, 0x00, 0x00, 0x14, 0x00, 0x00, 0x00,
  0x01, 0x00, 0x00, 0x00, 0x20, 0x00, 0x00, 0x00, 0x44, 0x00, 0x00, 0x00,
  0x2c, 0x00, 0x00, 0x00, 0x04, 0x00, 0x00, 0x00, 0x01, 0x00, 0x00, 0x00,
  0x40, 0x00, 0x00, 0x00, 0x03, 0x00, 0x00, 0x00, 0x01, 0x00, 0x00, 0x00,
  0x0c, 0x00, 0x00, 0x00, 0x63, 0x6f, 0x6e, 0x76, 0x32, 0x64, 0x5f, 0x69,
  0x6e, 0x70, 0x75, 0x74, 0x00, 0x00, 0x00, 0x00, 0x04, 0x00, 0x00, 0x00,
  0xff, 0xff, 0xff, 0xff, 0x40, 0x00, 0x00, 0x00, 0x03, 0x00, 0x00, 0x00,
  0x01, 0x00, 0x00, 0x00, 0xfc, 0xff, 0xff, 0xff, 0x04, 0x00, 0x04, 0x00,
  0x04, 0x00, 0x00, 0x00
};

unsigned int model_tflite_len = 13120;// Fill the int in `src/model.cc` here